{
  "version": "1.0",
  "truncation": null,
  "padding": null,
  "added_tokens": [
    {
      "id": 0,
      "content": "[PAD]",
      "single_word": false,
      "lstrip": false,
      "rstrip": false,
      "normalized": false,
      "special": true
    },
    {
      "id": 1,
      "content": "[UNK]",
      "single_word": false,
      "lstrip": false,
      "rstrip": false,
      "normalized": false,
      "special": true
    },
    {
      "id": 2,
      "content": "[CLS]",
      "single_word": false,
      "lstrip": false,
      "rstrip": false,
      "normalized": false,
      "special": true
    },
    {
      "id": 3,
      "content": "[SEP]",
      "single_word": false,
      "lstrip": false,
      "rstrip": false,
      "normalized": false,
      "special": true
    },
    {
      "id": 4,
      "content": "[MASK]",
      "single_word": false,
      "lstrip": false,
      "rstrip": false,
      "normalized": false,
      "special": true
    },
    {
      "id": 5,
      "content": "[SOS]",
      "single_word": false,
      "lstrip": false,
      "rstrip": false,
      "normalized": false,
      "special": true
    },
    {
      "id": 6,
      "content": "[EOS]",
      "single_word": false,
      "lstrip": false,
      "rstrip": false,
      "normalized": false,
      "special": true
    }
  ],
  "normalizer": {
    "type": "Sequence",
    "normalizers": [
      {
        "type": "NFKC"
      },
      {
        "type": "Lowercase"
      }
    ]
  },
  "pre_tokenizer": {
    "type": "Whitespace"
  },
  "post_processor": null,
  "decoder": null,
  "model": {
    "type": "BPE",
    "dropout": null,
    "unk_token": "[UNK]",
    "continuing_subword_prefix": null,
    "end_of_word_suffix": null,
    "fuse_unk": false,
    "byte_fallback": false,
    "ignore_merges": false,
    "vocab": {
      "[PAD]": 0,
      "[UNK]": 1,
      "[CLS]": 2,
      "[SEP]": 3,
      "[MASK]": 4,
      "[SOS]": 5,
      "[EOS]": 6,
      "\u0000": 7,
      "\u0001": 8,
      "\u0002": 9,
      "\u0003": 10,
      "\u0004": 11,
      "\u0006": 12,
      "\b": 13,
      "\u0010": 14,
      "\u0015": 15,
      "\u0017": 16,
      "\u0019": 17,
      "\u001c": 18,
      "\u001d": 19,
      "\u001e": 20,
      "\u001f": 21,
      "!": 22,
      "\"": 23,
      "#": 24,
      "$": 25,
      "%": 26,
      "&": 27,
      "'": 28,
      "(": 29,
      ")": 30,
      "*": 31,
      "+": 32,
      ",": 33,
      "-": 34,
      ".": 35,
      "/": 36,
      "0": 37,
      "1": 38,
      "2": 39,
      "3": 40,
      "4": 41,
      "5": 42,
      "6": 43,
      "7": 44,
      "8": 45,
      "9": 46,
      ":": 47,
      ";": 48,
      "<": 49,
      "=": 50,
      ">": 51,
      "?": 52,
      "@": 53,
      "[": 54,
      "\\": 55,
      "]": 56,
      "^": 57,
      "_": 58,
      "`": 59,
      "a": 60,
      "b": 61,
      "c": 62,
      "d": 63,
      "e": 64,
      "f": 65,
      "g": 66,
      "h": 67,
      "i": 68,
      "j": 69,
      "k": 70,
      "l": 71,
      "m": 72,
      "n": 73,
      "o": 74,
      "p": 75,
      "q": 76,
      "r": 77,
      "s": 78,
      "t": 79,
      "u": 80,
      "v": 81,
      "w": 82,
      "x": 83,
      "y": 84,
      "z": 85,
      "{": 86,
      "|": 87,
      "}": 88,
      "~": 89,
      "": 90,
      "": 91,
      "": 92,
      "": 93,
      "": 94,
      "": 95,
      "": 96,
      "": 97,
      "": 98,
      "": 99,
      "": 100,
      "": 101,
      "": 102,
      "": 103,
      "": 104,
      "": 105,
      "": 106,
      "": 107,
      "": 108,
      "": 109,
      "": 110,
      "": 111,
      "": 112,
      "": 113,
      "": 114,
      "": 115,
      "": 116,
      "": 117,
      "": 118,
      "¡": 119,
      "¢": 120,
      "£": 121,
      "¤": 122,
      "¥": 123,
      "¦": 124,
      "§": 125,
      "©": 126,
      "«": 127,
      "¬": 128,
      "­": 129,
      "®": 130,
      "°": 131,
      "±": 132,
      "¶": 133,
      "·": 134,
      "»": 135,
      "¿": 136,
      "×": 137,
      "ß": 138,
      "à": 139,
      "á": 140,
      "â": 141,
      "ã": 142,
      "ä": 143,
      "å": 144,
      "æ": 145,
      "ç": 146,
      "è": 147,
      "é": 148,
      "ê": 149,
      "ë": 150,
      "ì": 151,
      "í": 152,
      "î": 153,
      "ï": 154,
      "ð": 155,
      "ñ": 156,
      "ò": 157,
      "ó": 158,
      "ô": 159,
      "õ": 160,
      "ö": 161,
      "÷": 162,
      "ø": 163,
      "ù": 164,
      "ú": 165,
      "û": 166,
      "ü": 167,
      "ý": 168,
      "þ": 169,
      "ÿ": 170,
      "ā": 171,
      "ă": 172,
      "ą": 173,
      "ć": 174,
      "ĉ": 175,
      "ċ": 176,
      "č": 177,
      "ď": 178,
      "đ": 179,
      "ē": 180,
      "ĕ": 181,
      "ė": 182,
      "ę": 183,
      "ě": 184,
      "ĝ": 185,
      "ğ": 186,
      "ġ": 187,
      "ģ": 188,
      "ĥ": 189,
      "ħ": 190,
      "ĩ": 191,
      "ī": 192,
      "ĭ": 193,
      "į": 194,
      "ı": 195,
      "ĵ": 196,
      "ķ": 197,
      "ĸ": 198,
      "ĺ": 199,
      "ļ": 200,
      "ľ": 201,
      "ł": 202,
      "ń": 203,
      "ņ": 204,
      "ň": 205,
      "ŋ": 206,
      "ō": 207,
      "ő": 208,
      "œ": 209,
      "ŕ": 210,
      "ŗ": 211,
      "ř": 212,
      "ś": 213,
      "ŝ": 214,
      "ş": 215,
      "š": 216,
      "ţ": 217,
      "ť": 218,
      "ŧ": 219,
      "ũ": 220,
      "ū": 221,
      "ŭ": 222,
      "ů": 223,
      "ű": 224,
      "ų": 225,
      "ŵ": 226,
      "ź": 227,
      "ż": 228,
      "ž": 229,
      "ƅ": 230,
      "ƒ": 231,
      "ƙ": 232,
      "ƛ": 233,
      "ơ": 234,
      "ƥ": 235,
      "ƨ": 236,
      "ƭ": 237,
      "ư": 238,
      "ƴ": 239,
      "ƶ": 240,
      "ƹ": 241,
      "ƺ": 242,
      "ƻ": 243,
      "ƽ": 244,
      "ƿ": 245,
      "ǀ": 246,
      "ǎ": 247,
      "ǐ": 248,
      "ǒ": 249,
      "ǔ": 250,
      "ǝ": 251,
      "ǡ": 252,
      "ǥ": 253,
      "ǧ": 254,
      "ǫ": 255,
      "ǯ": 256,
      "ǵ": 257,
      "ǹ": 258,
      "ǽ": 259,
      "ǿ": 260,
      "ȁ": 261,
      "ȃ": 262,
      "ȋ": 263,
      "ȍ": 264,
      "ș": 265,
      "ț": 266,
      "ȫ": 267,
      "ȴ": 268,
      "ȵ": 269,
      "ȼ": 270,
      "ɐ": 271,
      "ɑ": 272,
      "ɒ": 273,
      "ɓ": 274,
      "ɔ": 275,
      "ɗ": 276,
      "ə": 277,
      "ɛ": 278,
      "ɜ": 279,
      "ɡ": 280,
      "ɢ": 281,
      "ɥ": 282,
      "ɦ": 283,
      "ɧ": 284,
      "ɪ": 285,
      "ɫ": 286,
      "ɱ": 287,
      "ɲ": 288,
      "ɳ": 289,
      "ɴ": 290,
      "ɵ": 291,
      "ɹ": 292,
      "ɻ": 293,
      "ɽ": 294,
      "ɾ": 295,
      "ʀ": 296,
      "ʁ": 297,
      "ʃ": 298,
      "ʄ": 299,
      "ʇ": 300,
      "ʊ": 301,
      "ʍ": 302,
      "ʎ": 303,
      "ʏ": 304,
      "ʒ": 305,
      "ʖ": 306,
      "ʙ": 307,
      "ʜ": 308,
      "ʞ": 309,
      "ʟ": 310,
      "ʢ": 311,
      "ʣ": 312,
      "ʤ": 313,
      "ʦ": 314,
      "ʧ": 315,
      "ʹ": 316,
      "ʺ": 317,
      "ʻ": 318,
      "ʼ": 319,
      "ʾ": 320,
      "ʿ": 321,
      "ˀ": 322,
      "ˁ": 323,
      "˃": 324,
      "ˆ": 325,
      "ˇ": 326,
      "ˈ": 327,
      "ˉ": 328,
      "ˌ": 329,
      "ː": 330,
      "˭": 331,
      "ˮ": 332,
      "˰": 333,
      "˳": 334,
      "˵": 335,
      "˶": 336,
      "˸": 337,
      "˹": 338,
      "˻": 339,
      "˼": 340,
      "˾": 341,
      "˿": 342,
      "́": 343,
      "̃": 344,
      "̄": 345,
      "̅": 346,
      "̆": 347,
      "̇": 348,
      "̈": 349,
      "̊": 350,
      "̋": 351,
      "̚": 352,
      "̡": 353,
      "̤": 354,
      "̧": 355,
      "̨": 356,
      "̩": 357,
      "̪": 358,
      "̫": 359,
      "̮": 360,
      "̱": 361,
      "̲": 362,
      "̵": 363,
      "̷": 364,
      "̸": 365,
      "̽": 366,
      "̿": 367,
      "͇": 368,
      "͜": 369,
      "͡": 370,
      "ͥ": 371,
      "ͬ": 372,
      "ͱ": 373,
      "ͼ": 374,
      "ͽ": 375,
      "ΐ": 376,
      "΢": 377,
      "ά": 378,
      "έ": 379,
      "ή": 380,
      "ί": 381,
      "α": 382,
      "β": 383,
      "γ": 384,
      "δ": 385,
      "ε": 386,
      "ζ": 387,
      "η": 388,
      "θ": 389,
      "ι": 390,
      "κ": 391,
      "λ": 392,
      "μ": 393,
      "ν": 394,
      "ξ": 395,
      "ο": 396,
      "π": 397,
      "ρ": 398,
      "ς": 399,
      "σ": 400,
      "τ": 401,
      "υ": 402,
      "φ": 403,
      "χ": 404,
      "ψ": 405,
      "ω": 406,
      "ϊ": 407,
      "ό": 408,
      "ύ": 409,
      "ώ": 410,
      "ϝ": 411,
      "ϟ": 412,
      "ϡ": 413,
      "ϣ": 414,
      "ϥ": 415,
      "ϳ": 416,
      "ϻ": 417,
      "а": 418,
      "б": 419,
      "в": 420,
      "г": 421,
      "д": 422,
      "е": 423,
      "ж": 424,
      "з": 425,
      "и": 426,
      "й": 427,
      "к": 428,
      "л": 429,
      "м": 430,
      "н": 431,
      "о": 432,
      "п": 433,
      "р": 434,
      "с": 435,
      "т": 436,
      "у": 437,
      "ф": 438,
      "х": 439,
      "ц": 440,
      "ч": 441,
      "ш": 442,
      "щ": 443,
      "ъ": 444,
      "ы": 445,
      "ь": 446,
      "э": 447,
      "ю": 448,
      "я": 449,
      "ё": 450,
      "ђ": 451,
      "є": 452,
      "ѕ": 453,
      "і": 454,
      "ї": 455,
      "ј": 456,
      "љ": 457,
      "њ": 458,
      "ћ": 459,
      "ў": 460,
      "џ": 461,
      "ѵ": 462,
      "ѽ": 463,
      "ѿ": 464,
      "ґ": 465,
      "ғ": 466,
      "қ": 467,
      "ң": 468,
      "ҩ": 469,
      "ү": 470,
      "ұ": 471,
      "ҳ": 472,
      "ҵ": 473,
      "ҹ": 474,
      "һ": 475,
      "ҽ": 476,
      "ҿ": 477,
      "ӈ": 478,
      "ә": 479,
      "ӝ": 480,
      "ӣ": 481,
      "ө": 482,
      "ӱ": 483,
      "ӵ": 484,
      "ӷ": 485,
      "ӹ": 486,
      "ӿ": 487,
      "ԁ": 488,
      "ԍ": 489,
      "ԥ": 490,
      "ԫ": 491,
      "԰": 492,
      "ա": 493,
      "բ": 494,
      "դ": 495,
      "ե": 496,
      "զ": 497,
      "ը": 498,
      "թ": 499,
      "ժ": 500,
      "ի": 501,
      "լ": 502,
      "խ": 503,
      "կ": 504,
      "հ": 505,
      "ղ": 506,
      "մ": 507,
      "յ": 508,
      "ն": 509,
      "ո": 510,
      "չ": 511,
      "ռ": 512,
      "ս": 513,
      "վ": 514,
      "տ": 515,
      "ր": 516,
      "ց": 517,
      "ւ": 518,
      "փ": 519,
      "օ": 520,
      "֪": 521,
      "֫": 522,
      "֮": 523,
      "ְ": 524,
      "ֱ": 525,
      "ֲ": 526,
      "ֳ": 527,
      "ִ": 528,
      "ַ": 529,
      "ֹ": 530,
      "ֻ": 531,
      "ּ": 532,
      "ֿ": 533,
      "א": 534,
      "ב": 535,
      "ג": 536,
      "ד": 537,
      "ה": 538,
      "ו": 539,
      "ז": 540,
      "ח": 541,
      "ט": 542,
      "י": 543,
      "ך": 544,
      "כ": 545,
      "ל": 546,
      "ם": 547,
      "מ": 548,
      "ן": 549,
      "נ": 550,
      "ס": 551,
      "ע": 552,
      "ף": 553,
      "פ": 554,
      "ץ": 555,
      "צ": 556,
      "ק": 557,
      "ר": 558,
      "ש": 559,
      "ת": 560,
      "ײ": 561,
      "׵": 562,
      "׷": 563,
      "׺": 564,
      "׼": 565,
      "،": 566,
      "؏": 567,
      "؛": 568,
      "؟": 569,
      "ء": 570,
      "آ": 571,
      "أ": 572,
      "ؤ": 573,
      "إ": 574,
      "ئ": 575,
      "ا": 576,
      "ب": 577,
      "ة": 578,
      "ت": 579,
      "ث": 580,
      "ج": 581,
      "ح": 582,
      "خ": 583,
      "د": 584,
      "ذ": 585,
      "ر": 586,
      "ز": 587,
      "س": 588,
      "ش": 589,
      "ص": 590,
      "ض": 591,
      "ط": 592,
      "ظ": 593,
      "ع": 594,
      "غ": 595,
      "ؼ": 596,
      "ـ": 597,
      "ف": 598,
      "ق": 599,
      "ك": 600,
      "ل": 601,
      "م": 602,
      "ن": 603,
      "ه": 604,
      "و": 605,
      "ى": 606,
      "ي": 607,
      "ً": 608,
      "ٌ": 609,
      "ٍ": 610,
      "َ": 611,
      "ُ": 612,
      "ِ": 613,
      "ّ": 614,
      "ْ": 615,
      "ٓ": 616,
      "ٔ": 617,
      "ٖ": 618,
      "٠": 619,
      "١": 620,
      "٢": 621,
      "٣": 622,
      "٤": 623,
      "٥": 624,
      "٦": 625,
      "٧": 626,
      "٨": 627,
      "٩": 628,
      "٭": 629,
      "ٰ": 630,
      "ٴ": 631,
      "ټ": 632,
      "پ": 633,
      "چ": 634,
      "ړ": 635,
      "ژ": 636,
      "ښ": 637,
      "ڤ": 638,
      "ک": 639,
      "ڪ": 640,
      "گ": 641,
      "ڰ": 642,
      "ڱ": 643,
      "ڲ": 644,
      "ڴ": 645,
      "ڵ": 646,
      "ں": 647,
      "ڼ": 648,
      "ڿ": 649,
      "ہ": 650,
      "ۆ": 651,
      "ۇ": 652,
      "ی": 653,
      "ے": 654,
      "۔": 655,
      "ە": 656,
      "ۖ": 657,
      "ۗ": 658,
      "ۘ": 659,
      "ۙ": 660,
      "ۚ": 661,
      "ۜ": 662,
      "۞": 663,
      "۟": 664,
      "ۢ": 665,
      "ۣ": 666,
      "ۤ": 667,
      "ۨ": 668,
      "۩": 669,
      "۪": 670,
      "۫": 671,
      "۬": 672,
      "۰": 673,
      "۲": 674,
      "۳": 675,
      "۴": 676,
      "۵": 677,
      "۶": 678,
      "۷": 679,
      "ܟ": 680,
      "ܷ": 681,
      "ܻ": 682,
      "ܾ": 683,
      "ݒ": 684,
      "ݠ": 685,
      "ݲ": 686,
      "ݳ": 687,
      "ݼ": 688,
      "ޣ": 689,
      "ߋ": 690,
      "ߵ": 691,
      "࣬": 692,
      "ं": 693,
      "अ": 694,
      "आ": 695,
      "इ": 696,
      "उ": 697,
      "ए": 698,
      "औ": 699,
      "क": 700,
      "ख": 701,
      "ग": 702,
      "च": 703,
      "ज": 704,
      "ट": 705,
      "ठ": 706,
      "ड": 707,
      "ण": 708,
      "त": 709,
      "द": 710,
      "ध": 711,
      "न": 712,
      "प": 713,
      "फ": 714,
      "ब": 715,
      "भ": 716,
      "म": 717,
      "य": 718,
      "र": 719,
      "ल": 720,
      "व": 721,
      "श": 722,
      "ष": 723,
      "स": 724,
      "ह": 725,
      "़": 726,
      "ा": 727,
      "ि": 728,
      "ी": 729,
      "ू": 730,
      "े": 731,
      "ै": 732,
      "ॉ": 733,
      "ो": 734,
      "्": 735,
      "ॐ": 736,
      "।": 737,
      "७": 738,
      "ং": 739,
      "অ": 740,
      "আ": 741,
      "উ": 742,
      "এ": 743,
      "ও": 744,
      "ক": 745,
      "গ": 746,
      "ছ": 747,
      "জ": 748,
      "ড": 749,
      "ণ": 750,
      "ত": 751,
      "থ": 752,
      "দ": 753,
      "ধ": 754,
      "ন": 755,
      "প": 756,
      "ফ": 757,
      "ব": 758,
      "ভ": 759,
      "ম": 760,
      "য": 761,
      "র": 762,
      "ল": 763,
      "শ": 764,
      "স": 765,
      "হ": 766,
      "়": 767,
      "া": 768,
      "ি": 769,
      "ী": 770,
      "ু": 771,
      "ে": 772,
      "ো": 773,
      "্": 774,
      "ગ": 775,
      "જ": 776,
      "ત": 777,
      "ર": 778,
      "ા": 779,
      "ી": 780,
      "ુ": 781,
      "ଆ": 782,
      "ଓ": 783,
      "ଡ": 784,
      "଼": 785,
      "ି": 786,
      "୧": 787,
      "அ": 788,
      "இ": 789,
      "ஈ": 790,
      "ஐ": 791,
      "க": 792,
      "ங": 793,
      "ச": 794,
      "ஜ": 795,
      "ட": 796,
      "ண": 797,
      "த": 798,
      "ந": 799,
      "ன": 800,
      "ப": 801,
      "ம": 802,
      "ய": 803,
      "ர": 804,
      "ற": 805,
      "ல": 806,
      "ள": 807,
      "ழ": 808,
      "வ": 809,
      "ஹ": 810,
      "ா": 811,
      "ி": 812,
      "ீ": 813,
      "ு": 814,
      "ூ": 815,
      "ெ": 816,
      "ே": 817,
      "ை": 818,
      "ொ": 819,
      "்": 820,
      "క": 821,
      "గ": 822,
      "డ": 823,
      "త": 824,
      "ర": 825,
      "ల": 826,
      "ష": 827,
      "స": 828,
      "ా": 829,
      "ు": 830,
      "ె": 831,
      "్": 832,
      "ಂ": 833,
      "ಕ": 834,
      "ಡ": 835,
      "ಧ": 836,
      "ನ": 837,
      "ಪ": 838,
      "ಬ": 839,
      "ರ": 840,
      "ೋ": 841,
      "್": 842,
      "ം": 843,
      "അ": 844,
      "ഇ": 845,
      "ഉ": 846,
      "എ": 847,
      "ക": 848,
      "ങ": 849,
      "ച": 850,
      "ജ": 851,
      "ട": 852,
      "ഡ": 853,
      "ണ": 854,
      "ത": 855,
      "ദ": 856,
      "ധ": 857,
      "ന": 858,
      "പ": 859,
      "ഫ": 860,
      "ബ": 861,
      "മ": 862,
      "യ": 863,
      "ര": 864,
      "റ": 865,
      "ല": 866,
      "ള": 867,
      "വ": 868,
      "ശ": 869,
      "സ": 870,
      "ഹ": 871,
      "ാ": 872,
      "ി": 873,
      "ീ": 874,
      "ു": 875,
      "ൂ": 876,
      "ൃ": 877,
      "െ": 878,
      "േ": 879,
      "ൊ": 880,
      "ോ": 881,
      "്": 882,
      "ർ": 883,
      "ൽ": 884,
      "ൾ": 885,
      "ං": 886,
      "අ": 887,
      "ආ": 888,
      "ක": 889,
      "ග": 890,
      "ඨ": 891,
      "ත": 892,
      "ද": 893,
      "න": 894,
      "ප": 895,
      "ම": 896,
      "ය": 897,
      "ර": 898,
      "ල": 899,
      "ව": 900,
      "ස": 901,
      "හ": 902,
      "්": 903,
      "ා": 904,
      "ැ": 905,
      "ි": 906,
      "ී": 907,
      "ු": 908,
      "ේ": 909,
      "ෝ": 910,
      "ก": 911,
      "ข": 912,
      "ค": 913,
      "ฆ": 914,
      "ง": 915,
      "จ": 916,
      "ฉ": 917,
      "ช": 918,
      "ซ": 919,
      "ญ": 920,
      "ณ": 921,
      "ด": 922,
      "ต": 923,
      "ถ": 924,
      "ท": 925,
      "ธ": 926,
      "น": 927,
      "บ": 928,
      "ป": 929,
      "ผ": 930,
      "ฝ": 931,
      "พ": 932,
      "ฟ": 933,
      "ภ": 934,
      "ม": 935,
      "ย": 936,
      "ร": 937,
      "ล": 938,
      "ว": 939,
      "ศ": 940,
      "ษ": 941,
      "ส": 942,
      "ห": 943,
      "ฬ": 944,
      "อ": 945,
      "ฮ": 946,
      "ฯ": 947,
      "ะ": 948,
      "ั": 949,
      "า": 950,
      "ิ": 951,
      "ี": 952,
      "ึ": 953,
      "ื": 954,
      "ุ": 955,
      "ู": 956,
      "฿": 957,
      "เ": 958,
      "แ": 959,
      "โ": 960,
      "ใ": 961,
      "ไ": 962,
      "ๆ": 963,
      "็": 964,
      "่": 965,
      "้": 966,
      "๋": 967,
      "์": 968,
      "ํ": 969,
      "๏": 970,
      "๑": 971,
      "๒": 972,
      "๓": 973,
      "๔": 974,
      "༄": 975,
      "༉": 976,
      "་": 977,
      "༺": 978,
      "ག": 979,
      "ད": 980,
      "བ": 981,
      "ཡ": 982,
      "ི": 983,
      "ོ": 984,
      "က": 985,
      "စ": 986,
      "န": 987,
      "ဘ": 988,
      "မ": 989,
      "ယ": 990,
      "လ": 991,
      "သ": 992,
      "ဟ": 993,
      "အ": 994,
      "ာ": 995,
      "ိ": 996,
      "ု": 997,
      "ေ": 998,
      "ံ": 999,
      "း": 1000,
      "္": 1001,
      "်": 1002,
      "ျ": 1003,
      "ြ": 1004,
      "ა": 1005,
      "ბ": 1006,
      "გ": 1007,
      "დ": 1008,
      "ე": 1009,
      "ვ": 1010,
      "თ": 1011,
      "ი": 1012,
      "კ": 1013,
      "ლ": 1014,
      "მ": 1015,
      "ნ": 1016,
      "ო": 1017,
      "რ": 1018,
      "ს": 1019,
      "ტ": 1020,
      "უ": 1021,
      "ფ": 1022,
      "ქ": 1023,
      "ღ": 1024,
      "ყ": 1025,
      "ჩ": 1026,
      "ᄋ": 1027,
      "ᄏ": 1028,
      "ᄒ": 1029,
      "ᅣ": 1030,
      "ᆞ": 1031,
      "ᐅ": 1032,
      "ᑀ": 1033,
      "ᖱ": 1034,
      "ᗩ": 1035,
      "ᝰ": 1036,
      "ង": 1037,
      "ច": 1038,
      "យ": 1039,
      "រ": 1040,
      "ស": 1041,
      "ិ": 1042,
      "ុ": 1043,
      "ឿ": 1044,
      "០": 1045,
      "១": 1046,
      "ᥙ": 1047,
      "᧐": 1048,
      "ᴀ": 1049,
      "ᴄ": 1050,
      "ᴅ": 1051,
      "ᴇ": 1052,
      "ᴋ": 1053,
      "ᴍ": 1054,
      "ᴏ": 1055,
      "ᴘ": 1056,
      "ᴛ": 1057,
      "ᴜ": 1058,
      "ᴠ": 1059,
      "ᴡ": 1060,
      "ᴢ": 1061,
      "ḍ": 1062,
      "ḑ": 1063,
      "ḗ": 1064,
      "ḡ": 1065,
      "ḣ": 1066,
      "ḥ": 1067,
      "ḫ": 1068,
      "ḳ": 1069,
      "ṣ": 1070,
      "ṭ": 1071,
      "ẅ": 1072,
      "ẓ": 1073,
      "ẕ": 1074,
      "ẖ": 1075,
      "ạ": 1076,
      "ả": 1077,
      "ấ": 1078,
      "ậ": 1079,
      "ắ": 1080,
      "ẵ": 1081,
      "ặ": 1082,
      "ẹ": 1083,
      "ẽ": 1084,
      "ế": 1085,
      "ề": 1086,
      "ể": 1087,
      "ệ": 1088,
      "ỉ": 1089,
      "ị": 1090,
      "ố": 1091,
      "ổ": 1092,
      "ộ": 1093,
      "ợ": 1094,
      "ụ": 1095,
      "ủ": 1096,
      "ứ": 1097,
      "ừ": 1098,
      "ự": 1099,
      "ἁ": 1100,
      "ἐ": 1101,
      "ἰ": 1102,
      "ἱ": 1103,
      "ἵ": 1104,
      "ὁ": 1105,
      "ὲ": 1106,
      "ὸ": 1107,
      "ῆ": 1108,
      "ῦ": 1109,
      "​": 1110,
      "‌": 1111,
      "‍": 1112,
      "‎": 1113,
      "‏": 1114,
      "‐": 1115,
      "‒": 1116,
      "–": 1117,
      "—": 1118,
      "―": 1119,
      "‖": 1120,
      "‘": 1121,
      "’": 1122,
      "‚": 1123,
      "“": 1124,
      "”": 1125,
      "„": 1126,
      "‟": 1127,
      "†": 1128,
      "‡": 1129,
      "•": 1130,
      "‣": 1131,
      "‪": 1132,
      "‫": 1133,
      "‬": 1134,
      "‭": 1135,
      "‰": 1136,
      "′": 1137,
      "‹": 1138,
      "›": 1139,
      "※": 1140,
      "‿": 1141,
      "⁂": 1142,
      "⁄": 1143,
      "⁠": 1144,
      "⁣": 1145,
      "⁦": 1146,
      "⁩": 1147,
      "₤": 1148,
      "₥": 1149,
      "€": 1150,
      "₹": 1151,
      "₺": 1152,
      "₽": 1153,
      "⃣": 1154,
      "℘": 1155,
      "←": 1156,
      "↑": 1157,
      "→": 1158,
      "↓": 1159,
      "↔": 1160,
      "↕": 1161,
      "↖": 1162,
      "↗": 1163,
      "↘": 1164,
      "↙": 1165,
      "↩": 1166,
      "↪": 1167,
      "↳": 1168,
      "↹": 1169,
      "↺": 1170,
      "⇐": 1171,
      "⇒": 1172,
      "⇓": 1173,
      "⇔": 1174,
      "⇦": 1175,
      "⇧": 1176,
      "⇨": 1177,
      "∂": 1178,
      "∆": 1179,
      "∇": 1180,
      "∑": 1181,
      "−": 1182,
      "∘": 1183,
      "∙": 1184,
      "√": 1185,
      "∝": 1186,
      "∞": 1187,
      "∧": 1188,
      "∩": 1189,
      "∼": 1190,
      "≈": 1191,
      "≠": 1192,
      "≡": 1193,
      "≤": 1194,
      "≥": 1195,
      "≦": 1196,
      "≫": 1197,
      "⊃": 1198,
      "⊱": 1199,
      "⋅": 1200,
      "⋆": 1201,
      "⌘": 1202,
      "⌚": 1203,
      "⌛": 1204,
      "⌨": 1205,
      "⍟": 1206,
      "⎙": 1207,
      "⎯": 1208,
      "⏏": 1209,
      "⏩": 1210,
      "⏪": 1211,
      "⏫": 1212,
      "⏬": 1213,
      "⏰": 1214,
      "⏱": 1215,
      "⏳": 1216,
      "⏹": 1217,
      "⏺": 1218,
      "⓵": 1219,
      "─": 1220,
      "━": 1221,
      "│": 1222,
      "┊": 1223,
      "┏": 1224,
      "└": 1225,
      "┕": 1226,
      "┗": 1227,
      "├": 1228,
      "┴": 1229,
      "╋": 1230,
      "═": 1231,
      "║": 1232,
      "╚": 1233,
      "╦": 1234,
      "╮": 1235,
      "╯": 1236,
      "╲": 1237,
      "▃": 1238,
      "█": 1239,
      "▌": 1240,
      "▐": 1241,
      "░": 1242,
      "▒": 1243,
      "▓": 1244,
      "■": 1245,
      "□": 1246,
      "▪": 1247,
      "▫": 1248,
      "▬": 1249,
      "▲": 1250,
      "△": 1251,
      "▶": 1252,
      "▷": 1253,
      "▸": 1254,
      "►": 1255,
      "▻": 1256,
      "▼": 1257,
      "▽": 1258,
      "▾": 1259,
      "◀": 1260,
      "◁": 1261,
      "◄": 1262,
      "◅": 1263,
      "◇": 1264,
      "◈": 1265,
      "◉": 1266,
      "◊": 1267,
      "○": 1268,
      "●": 1269,
      "◕": 1270,
      "◗": 1271,
      "◘": 1272,
      "◙": 1273,
      "◡": 1274,
      "◢": 1275,
      "◣": 1276,
      "◤": 1277,
      "◥": 1278,
      "◦": 1279,
      "◻": 1280,
      "◼": 1281,
      "◾": 1282,
      "☀": 1283,
      "☁": 1284,
      "☂": 1285,
      "☃": 1286,
      "☄": 1287,
      "★": 1288,
      "☆": 1289,
      "☇": 1290,
      "☉": 1291,
      "☎": 1292,
      "☏": 1293,
      "☑": 1294,
      "☔": 1295,
      "☕": 1296,
      "☘": 1297,
      "☚": 1298,
      "☛": 1299,
      "☜": 1300,
      "☝": 1301,
      "☞": 1302,
      "☠": 1303,
      "☣": 1304,
      "☦": 1305,
      "☪": 1306,
      "☯": 1307,
      "☰": 1308,
      "☲": 1309,
      "☸": 1310,
      "☹": 1311,
      "☺": 1312,
      "☻": 1313,
      "☼": 1314,
      "☽": 1315,
      "☾": 1316,
      "☿": 1317,
      "♀": 1318,
      "♂": 1319,
      "♆": 1320,
      "♈": 1321,
      "♉": 1322,
      "♎": 1323,
      "♐": 1324,
      "♔": 1325,
      "♕": 1326,
      "♚": 1327,
      "♛": 1328,
      "♠": 1329,
      "♡": 1330,
      "♢": 1331,
      "♣": 1332,
      "♤": 1333,
      "♥": 1334,
      "♦": 1335,
      "♨": 1336,
      "♪": 1337,
      "♫": 1338,
      "♻": 1339,
      "⚌": 1340,
      "⚒": 1341,
      "⚓": 1342,
      "⚔": 1343,
      "⚕": 1344,
      "⚖": 1345,
      "⚘": 1346,
      "⚙": 1347,
      "⚜": 1348,
      "⚠": 1349,
      "⚡": 1350,
      "⚥": 1351,
      "⚪": 1352,
      "⚫": 1353,
      "⚱": 1354,
      "⚽": 1355,
      "⛄": 1356,
      "⛅": 1357,
      "⛑": 1358,
      "⛔": 1359,
      "⛪": 1360,
      "⛰": 1361,
      "⛱": 1362,
      "⛵": 1363,
      "⛸": 1364,
      "⛹": 1365,
      "⛼": 1366,
      "⛽": 1367,
      "⛿": 1368,
      "✁": 1369,
      "✂": 1370,
      "✄": 1371,
      "✅": 1372,
      "✈": 1373,
      "✉": 1374,
      "✊": 1375,
      "✋": 1376,
      "✌": 1377,
      "✍": 1378,
      "✎": 1379,
      "✏": 1380,
      "✒": 1381,
      "✓": 1382,
      "✔": 1383,
      "✕": 1384,
      "✖": 1385,
      "✘": 1386,
      "✚": 1387,
      "✤": 1388,
      "✦": 1389,
      "✧": 1390,
      "✨": 1391,
      "✩": 1392,
      "✪": 1393,
      "✫": 1394,
      "✮": 1395,
      "✯": 1396,
      "✰": 1397,
      "✳": 1398,
      "✶": 1399,
      "✽": 1400,
      "✿": 1401,
      "❀": 1402,
      "❁": 1403,
      "❂": 1404,
      "❃": 1405,
      "❄": 1406,
      "❇": 1407,
      "❈": 1408,
      "❊": 1409,
      "❌": 1410,
      "❎": 1411,
      "❓": 1412,
      "❔": 1413,
      "❕": 1414,
      "❖": 1415,
      "❗": 1416,
      "❝": 1417,
      "❞": 1418,
      "❣": 1419,
      "❤": 1420,
      "❥": 1421,
      "❦": 1422,
      "❭": 1423,
      "❮": 1424,
      "❯": 1425,
      "❶": 1426,
      "❷": 1427,
      "❸": 1428,
      "❾": 1429,
      "➔": 1430,
      "➕": 1431,
      "➖": 1432,
      "➜": 1433,
      "➟": 1434,
      "➡": 1435,
      "➢": 1436,
      "➣": 1437,
      "➤": 1438,
      "➥": 1439,
      "➨": 1440,
      "➪": 1441,
      "➬": 1442,
      "➰": 1443,
      "➵": 1444,
      "➸": 1445,
      "➽": 1446,
      "➿": 1447,
      "⟵": 1448,
      "⟶": 1449,
      "⠀": 1450,
      "⣬": 1451,
      "⤴": 1452,
      "⤵": 1453,
      "⤶": 1454,
      "⦁": 1455,
      "⫷": 1456,
      "⫸": 1457,
      "⬅": 1458,
      "⬆": 1459,
      "⬇": 1460,
      "⬜": 1461,
      "⬤": 1462,
      "⭐": 1463,
      "⭕": 1464,
      "ⱦ": 1465,
      "ⲟ": 1466,
      "ⴆ": 1467,
      "ⴝ": 1468,
      "、": 1469,
      "。": 1470,
      "〇": 1471,
      "〈": 1472,
      "《": 1473,
      "》": 1474,
      "「": 1475,
      "」": 1476,
      "【": 1477,
      "】": 1478,
      "〒": 1479,
      "〰": 1480,
      "〽": 1481,
      "あ": 1482,
      "い": 1483,
      "う": 1484,
      "え": 1485,
      "お": 1486,
      "か": 1487,
      "が": 1488,
      "き": 1489,
      "く": 1490,
      "け": 1491,
      "こ": 1492,
      "ご": 1493,
      "さ": 1494,
      "ざ": 1495,
      "し": 1496,
      "じ": 1497,
      "す": 1498,
      "ず": 1499,
      "せ": 1500,
      "そ": 1501,
      "た": 1502,
      "だ": 1503,
      "ち": 1504,
      "っ": 1505,
      "つ": 1506,
      "て": 1507,
      "で": 1508,
      "と": 1509,
      "ど": 1510,
      "な": 1511,
      "に": 1512,
      "ぬ": 1513,
      "ね": 1514,
      "の": 1515,
      "は": 1516,
      "ば": 1517,
      "ひ": 1518,
      "び": 1519,
      "ふ": 1520,
      "ぷ": 1521,
      "べ": 1522,
      "ほ": 1523,
      "ぼ": 1524,
      "ま": 1525,
      "み": 1526,
      "む": 1527,
      "め": 1528,
      "も": 1529,
      "ゃ": 1530,
      "や": 1531,
      "ゅ": 1532,
      "ゆ": 1533,
      "ょ": 1534,
      "よ": 1535,
      "ら": 1536,
      "り": 1537,
      "る": 1538,
      "れ": 1539,
      "ろ": 1540,
      "わ": 1541,
      "を": 1542,
      "ん": 1543,
      "ァ": 1544,
      "ア": 1545,
      "ィ": 1546,
      "イ": 1547,
      "ウ": 1548,
      "ェ": 1549,
      "エ": 1550,
      "オ": 1551,
      "カ": 1552,
      "ガ": 1553,
      "キ": 1554,
      "ギ": 1555,
      "ク": 1556,
      "グ": 1557,
      "ケ": 1558,
      "コ": 1559,
      "ゴ": 1560,
      "サ": 1561,
      "ザ": 1562,
      "シ": 1563,
      "ジ": 1564,
      "ス": 1565,
      "ズ": 1566,
      "セ": 1567,
      "ソ": 1568,
      "ゾ": 1569,
      "タ": 1570,
      "ダ": 1571,
      "チ": 1572,
      "ッ": 1573,
      "ツ": 1574,
      "ヅ": 1575,
      "テ": 1576,
      "デ": 1577,
      "ト": 1578,
      "ド": 1579,
      "ナ": 1580,
      "ニ": 1581,
      "ヌ": 1582,
      "ネ": 1583,
      "ノ": 1584,
      "ハ": 1585,
      "バ": 1586,
      "パ": 1587,
      "ヒ": 1588,
      "ビ": 1589,
      "ピ": 1590,
      "フ": 1591,
      "ブ": 1592,
      "プ": 1593,
      "ヘ": 1594,
      "ベ": 1595,
      "ペ": 1596,
      "ホ": 1597,
      "ボ": 1598,
      "ポ": 1599,
      "マ": 1600,
      "ミ": 1601,
      "ム": 1602,
      "メ": 1603,
      "モ": 1604,
      "ャ": 1605,
      "ヤ": 1606,
      "ュ": 1607,
      "ユ": 1608,
      "ョ": 1609,
      "ヨ": 1610,
      "ラ": 1611,
      "リ": 1612,
      "ル": 1613,
      "レ": 1614,
      "ロ": 1615,
      "ワ": 1616,
      "ン": 1617,
      "ヴ": 1618,
      "ヶ": 1619,
      "・": 1620,
      "ー": 1621,
      "ㄔ": 1622,
      "㤵": 1623,
      "㵱": 1624,
      "㼣": 1625,
      "䣬": 1626,
      "一": 1627,
      "七": 1628,
      "万": 1629,
      "三": 1630,
      "上": 1631,
      "下": 1632,
      "不": 1633,
      "世": 1634,
      "业": 1635,
      "东": 1636,
      "两": 1637,
      "並": 1638,
      "个": 1639,
      "中": 1640,
      "临": 1641,
      "主": 1642,
      "丽": 1643,
      "举": 1644,
      "乃": 1645,
      "乇": 1646,
      "之": 1647,
      "乎": 1648,
      "九": 1649,
      "也": 1650,
      "书": 1651,
      "买": 1652,
      "乾": 1653,
      "了": 1654,
      "争": 1655,
      "事": 1656,
      "二": 1657,
      "于": 1658,
      "互": 1659,
      "五": 1660,
      "井": 1661,
      "亚": 1662,
      "交": 1663,
      "产": 1664,
      "京": 1665,
      "亲": 1666,
      "人": 1667,
      "亿": 1668,
      "今": 1669,
      "介": 1670,
      "从": 1671,
      "仓": 1672,
      "他": 1673,
      "仙": 1674,
      "代": 1675,
      "令": 1676,
      "以": 1677,
      "仪": 1678,
      "们": 1679,
      "仰": 1680,
      "件": 1681,
      "价": 1682,
      "伊": 1683,
      "众": 1684,
      "会": 1685,
      "伝": 1686,
      "传": 1687,
      "伦": 1688,
      "伯": 1689,
      "伴": 1690,
      "但": 1691,
      "位": 1692,
      "住": 1693,
      "佐": 1694,
      "体": 1695,
      "何": 1696,
      "作": 1697,
      "你": 1698,
      "佳": 1699,
      "使": 1700,
      "來": 1701,
      "供": 1702,
      "便": 1703,
      "俗": 1704,
      "信": 1705,
      "修": 1706,
      "倉": 1707,
      "值": 1708,
      "做": 1709,
      "停": 1710,
      "健": 1711,
      "傳": 1712,
      "傷": 1713,
      "價": 1714,
      "儀": 1715,
      "儒": 1716,
      "優": 1717,
      "儿": 1718,
      "元": 1719,
      "充": 1720,
      "兆": 1721,
      "先": 1722,
      "光": 1723,
      "克": 1724,
      "免": 1725,
      "入": 1726,
      "全": 1727,
      "八": 1728,
      "公": 1729,
      "六": 1730,
      "兰": 1731,
      "共": 1732,
      "关": 1733,
      "其": 1734,
      "内": 1735,
      "冈": 1736,
      "册": 1737,
      "再": 1738,
      "写": 1739,
      "军": 1740,
      "冲": 1741,
      "决": 1742,
      "净": 1743,
      "准": 1744,
      "几": 1745,
      "凯": 1746,
      "出": 1747,
      "击": 1748,
      "刀": 1749,
      "分": 1750,
      "切": 1751,
      "列": 1752,
      "刘": 1753,
      "创": 1754,
      "利": 1755,
      "别": 1756,
      "到": 1757,
      "制": 1758,
      "前": 1759,
      "功": 1760,
      "加": 1761,
      "务": 1762,
      "动": 1763,
      "助": 1764,
      "勒": 1765,
      "動": 1766,
      "務": 1767,
      "勝": 1768,
      "包": 1769,
      "化": 1770,
      "北": 1771,
      "区": 1772,
      "區": 1773,
      "十": 1774,
      "千": 1775,
      "卍": 1776,
      "华": 1777,
      "卓": 1778,
      "单": 1779,
      "南": 1780,
      "単": 1781,
      "博": 1782,
      "卡": 1783,
      "卫": 1784,
      "印": 1785,
      "历": 1786,
      "原": 1787,
      "去": 1788,
      "县": 1789,
      "及": 1790,
      "友": 1791,
      "反": 1792,
      "发": 1793,
      "取": 1794,
      "受": 1795,
      "变": 1796,
      "口": 1797,
      "古": 1798,
      "另": 1799,
      "可": 1800,
      "台": 1801,
      "史": 1802,
      "号": 1803,
      "吃": 1804,
      "合": 1805,
      "吉": 1806,
      "同": 1807,
      "名": 1808,
      "后": 1809,
      "向": 1810,
      "吗": 1811,
      "君": 1812,
      "启": 1813,
      "呈": 1814,
      "告": 1815,
      "周": 1816,
      "味": 1817,
      "命": 1818,
      "咆": 1819,
      "和": 1820,
      "咳": 1821,
      "品": 1822,
      "哈": 1823,
      "員": 1824,
      "哪": 1825,
      "哮": 1826,
      "唐": 1827,
      "商": 1828,
      "問": 1829,
      "啦": 1830,
      "善": 1831,
      "喉": 1832,
      "喜": 1833,
      "喫": 1834,
      "嗨": 1835,
      "嘟": 1836,
      "器": 1837,
      "四": 1838,
      "回": 1839,
      "因": 1840,
      "团": 1841,
      "団": 1842,
      "园": 1843,
      "国": 1844,
      "图": 1845,
      "國": 1846,
      "園": 1847,
      "圖": 1848,
      "土": 1849,
      "在": 1850,
      "地": 1851,
      "场": 1852,
      "址": 1853,
      "坪": 1854,
      "型": 1855,
      "城": 1856,
      "域": 1857,
      "埼": 1858,
      "堀": 1859,
      "堂": 1860,
      "報": 1861,
      "場": 1862,
      "境": 1863,
      "墙": 1864,
      "壁": 1865,
      "壇": 1866,
      "士": 1867,
      "处": 1868,
      "备": 1869,
      "复": 1870,
      "夏": 1871,
      "夕": 1872,
      "外": 1873,
      "多": 1874,
      "大": 1875,
      "天": 1876,
      "夫": 1877,
      "失": 1878,
      "奖": 1879,
      "奮": 1880,
      "女": 1881,
      "她": 1882,
      "好": 1883,
      "如": 1884,
      "妆": 1885,
      "妊": 1886,
      "妹": 1887,
      "姆": 1888,
      "始": 1889,
      "姐": 1890,
      "姑": 1891,
      "委": 1892,
      "威": 1893,
      "娜": 1894,
      "婦": 1895,
      "子": 1896,
      "字": 1897,
      "孙": 1898,
      "孜": 1899,
      "學": 1900,
      "它": 1901,
      "宇": 1902,
      "安": 1903,
      "宋": 1904,
      "完": 1905,
      "宗": 1906,
      "官": 1907,
      "宙": 1908,
      "定": 1909,
      "宜": 1910,
      "宝": 1911,
      "实": 1912,
      "実": 1913,
      "客": 1914,
      "室": 1915,
      "宮": 1916,
      "家": 1917,
      "容": 1918,
      "宾": 1919,
      "宿": 1920,
      "寂": 1921,
      "寄": 1922,
      "密": 1923,
      "富": 1924,
      "寒": 1925,
      "寓": 1926,
      "寧": 1927,
      "对": 1928,
      "导": 1929,
      "封": 1930,
      "射": 1931,
      "将": 1932,
      "小": 1933,
      "少": 1934,
      "尔": 1935,
      "尚": 1936,
      "尤": 1937,
      "就": 1938,
      "尺": 1939,
      "尼": 1940,
      "尾": 1941,
      "局": 1942,
      "居": 1943,
      "屋": 1944,
      "山": 1945,
      "岁": 1946,
      "岛": 1947,
      "峊": 1948,
      "島": 1949,
      "州": 1950,
      "工": 1951,
      "左": 1952,
      "巧": 1953,
      "巫": 1954,
      "已": 1955,
      "巴": 1956,
      "巷": 1957,
      "市": 1958,
      "布": 1959,
      "师": 1960,
      "希": 1961,
      "带": 1962,
      "帮": 1963,
      "帰": 1964,
      "常": 1965,
      "幌": 1966,
      "干": 1967,
      "平": 1968,
      "年": 1969,
      "并": 1970,
      "幺": 1971,
      "广": 1972,
      "应": 1973,
      "底": 1974,
      "店": 1975,
      "庙": 1976,
      "度": 1977,
      "庭": 1978,
      "康": 1979,
      "廉": 1980,
      "建": 1981,
      "开": 1982,
      "弁": 1983,
      "异": 1984,
      "式": 1985,
      "弓": 1986,
      "张": 1987,
      "强": 1988,
      "弾": 1989,
      "当": 1990,
      "彡": 1991,
      "形": 1992,
      "彩": 1993,
      "影": 1994,
      "待": 1995,
      "很": 1996,
      "律": 1997,
      "徒": 1998,
      "得": 1999,
      "御": 2000,
      "微": 2001,
      "德": 2002,
      "心": 2003,
      "必": 2004,
      "忖": 2005,
      "志": 2006,
      "忘": 2007,
      "快": 2008,
      "态": 2009,
      "怍": 2010,
      "怖": 2011,
      "思": 2012,
      "急": 2013,
      "性": 2014,
      "怳": 2015,
      "总": 2016,
      "恋": 2017,
      "恥": 2018,
      "恩": 2019,
      "息": 2020,
      "悔": 2021,
      "悠": 2022,
      "您": 2023,
      "情": 2024,
      "惊": 2025,
      "想": 2026,
      "愉": 2027,
      "意": 2028,
      "愛": 2029,
      "感": 2030,
      "戏": 2031,
      "成": 2032,
      "我": 2033,
      "或": 2034,
      "战": 2035,
      "戛": 2036,
      "戦": 2037,
      "截": 2038,
      "戲": 2039,
      "户": 2040,
      "戸": 2041,
      "房": 2042,
      "所": 2043,
      "手": 2044,
      "打": 2045,
      "托": 2046,
      "找": 2047,
      "承": 2048,
      "技": 2049,
      "投": 2050,
      "抻": 2051,
      "拆": 2052,
      "拉": 2053,
      "拍": 2054,
      "择": 2055,
      "拳": 2056,
      "持": 2057,
      "指": 2058,
      "挺": 2059,
      "捐": 2060,
      "换": 2061,
      "据": 2062,
      "捷": 2063,
      "排": 2064,
      "探": 2065,
      "接": 2066,
      "推": 2067,
      "描": 2068,
      "提": 2069,
      "摂": 2070,
      "摆": 2071,
      "撮": 2072,
      "撲": 2073,
      "操": 2074,
      "擺": 2075,
      "支": 2076,
      "收": 2077,
      "改": 2078,
      "攻": 2079,
      "放": 2080,
      "政": 2081,
      "教": 2082,
      "散": 2083,
      "敦": 2084,
      "数": 2085,
      "整": 2086,
      "文": 2087,
      "料": 2088,
      "斯": 2089,
      "新": 2090,
      "方": 2091,
      "施": 2092,
      "旁": 2093,
      "旅": 2094,
      "族": 2095,
      "无": 2096,
      "日": 2097,
      "旧": 2098,
      "早": 2099,
      "时": 2100,
      "明": 2101,
      "易": 2102,
      "是": 2103,
      "显": 2104,
      "時": 2105,
      "晚": 2106,
      "晩": 2107,
      "普": 2108,
      "晶": 2109,
      "暂": 2110,
      "暉": 2111,
      "暑": 2112,
      "暖": 2113,
      "暗": 2114,
      "暮": 2115,
      "暽": 2116,
      "曜": 2117,
      "更": 2118,
      "書": 2119,
      "曼": 2120,
      "最": 2121,
      "月": 2122,
      "有": 2123,
      "朋": 2124,
      "服": 2125,
      "朔": 2126,
      "望": 2127,
      "朝": 2128,
      "木": 2129,
      "本": 2130,
      "札": 2131,
      "机": 2132,
      "村": 2133,
      "条": 2134,
      "来": 2135,
      "杰": 2136,
      "東": 2137,
      "松": 2138,
      "林": 2139,
      "枚": 2140,
      "果": 2141,
      "柏": 2142,
      "查": 2143,
      "柳": 2144,
      "栈": 2145,
      "校": 2146,
      "株": 2147,
      "格": 2148,
      "桃": 2149,
      "案": 2150,
      "桥": 2151,
      "梅": 2152,
      "棒": 2153,
      "森": 2154,
      "検": 2155,
      "楓": 2156,
      "楚": 2157,
      "楼": 2158,
      "楽": 2159,
      "樂": 2160,
      "横": 2161,
      "次": 2162,
      "欢": 2163,
      "欧": 2164,
      "款": 2165,
      "歌": 2166,
      "正": 2167,
      "此": 2168,
      "武": 2169,
      "歩": 2170,
      "毎": 2171,
      "每": 2172,
      "比": 2173,
      "民": 2174,
      "気": 2175,
      "水": 2176,
      "永": 2177,
      "求": 2178,
      "汉": 2179,
      "汗": 2180,
      "江": 2181,
      "池": 2182,
      "沈": 2183,
      "没": 2184,
      "河": 2185,
      "治": 2186,
      "泉": 2187,
      "法": 2188,
      "波": 2189,
      "注": 2190,
      "泳": 2191,
      "洁": 2192,
      "洒": 2193,
      "洞": 2194,
      "津": 2195,
      "洲": 2196,
      "活": 2197,
      "流": 2198,
      "测": 2199,
      "济": 2200,
      "浜": 2201,
      "浦": 2202,
      "浪": 2203,
      "海": 2204,
      "液": 2205,
      "混": 2206,
      "清": 2207,
      "温": 2208,
      "港": 2209,
      "游": 2210,
      "湖": 2211,
      "湾": 2212,
      "源": 2213,
      "满": 2214,
      "滩": 2215,
      "漢": 2216,
      "漫": 2217,
      "潭": 2218,
      "激": 2219,
      "濟": 2220,
      "瀬": 2221,
      "灣": 2222,
      "火": 2223,
      "灾": 2224,
      "炎": 2225,
      "点": 2226,
      "烈": 2227,
      "無": 2228,
      "焼": 2229,
      "照": 2230,
      "熙": 2231,
      "燥": 2232,
      "爱": 2233,
      "父": 2234,
      "爽": 2235,
      "爾": 2236,
      "牆": 2237,
      "片": 2238,
      "版": 2239,
      "物": 2240,
      "特": 2241,
      "状": 2242,
      "独": 2243,
      "狭": 2244,
      "狴": 2245,
      "猜": 2246,
      "猫": 2247,
      "献": 2248,
      "獻": 2249,
      "玄": 2250,
      "率": 2251,
      "玉": 2252,
      "玩": 2253,
      "现": 2254,
      "珠": 2255,
      "現": 2256,
      "球": 2257,
      "理": 2258,
      "琳": 2259,
      "瑟": 2260,
      "瓣": 2261,
      "生": 2262,
      "産": 2263,
      "用": 2264,
      "田": 2265,
      "由": 2266,
      "电": 2267,
      "男": 2268,
      "町": 2269,
      "画": 2270,
      "界": 2271,
      "略": 2272,
      "番": 2273,
      "畫": 2274,
      "異": 2275,
      "當": 2276,
      "疯": 2277,
      "疲": 2278,
      "痛": 2279,
      "療": 2280,
      "癟": 2281,
      "登": 2282,
      "白": 2283,
      "百": 2284,
      "的": 2285,
      "皇": 2286,
      "皮": 2287,
      "盖": 2288,
      "目": 2289,
      "直": 2290,
      "相": 2291,
      "眉": 2292,
      "看": 2293,
      "県": 2294,
      "真": 2295,
      "眼": 2296,
      "着": 2297,
      "瞄": 2298,
      "知": 2299,
      "石": 2300,
      "确": 2301,
      "碑": 2302,
      "確": 2303,
      "碼": 2304,
      "磯": 2305,
      "礁": 2306,
      "礪": 2307,
      "示": 2308,
      "礼": 2309,
      "社": 2310,
      "祝": 2311,
      "神": 2312,
      "票": 2313,
      "禮": 2314,
      "离": 2315,
      "私": 2316,
      "科": 2317,
      "秘": 2318,
      "移": 2319,
      "程": 2320,
      "稿": 2321,
      "空": 2322,
      "窶": 2323,
      "站": 2324,
      "竞": 2325,
      "章": 2326,
      "端": 2327,
      "笑": 2328,
      "第": 2329,
      "等": 2330,
      "答": 2331,
      "简": 2332,
      "篇": 2333,
      "築": 2334,
      "米": 2335,
      "类": 2336,
      "粵": 2337,
      "紅": 2338,
      "素": 2339,
      "索": 2340,
      "紫": 2341,
      "紹": 2342,
      "結": 2343,
      "絕": 2344,
      "給": 2345,
      "網": 2346,
      "繁": 2347,
      "繋": 2348,
      "红": 2349,
      "级": 2350,
      "纳": 2351,
      "纸": 2352,
      "线": 2353,
      "绍": 2354,
      "经": 2355,
      "结": 2356,
      "给": 2357,
      "绝": 2358,
      "统": 2359,
      "网": 2360,
      "置": 2361,
      "美": 2362,
      "義": 2363,
      "翔": 2364,
      "老": 2365,
      "考": 2366,
      "者": 2367,
      "而": 2368,
      "耐": 2369,
      "耮": 2370,
      "耳": 2371,
      "聊": 2372,
      "职": 2373,
      "联": 2374,
      "聙": 2375,
      "聫": 2376,
      "肉": 2377,
      "背": 2378,
      "胎": 2379,
      "胡": 2380,
      "胸": 2381,
      "能": 2382,
      "脟": 2383,
      "脰": 2384,
      "脺": 2385,
      "腰": 2386,
      "腹": 2387,
      "臑": 2388,
      "臒": 2389,
      "臨": 2390,
      "自": 2391,
      "臺": 2392,
      "興": 2393,
      "舊": 2394,
      "舍": 2395,
      "舒": 2396,
      "航": 2397,
      "舰": 2398,
      "艦": 2399,
      "艧": 2400,
      "色": 2401,
      "节": 2402,
      "花": 2403,
      "苏": 2404,
      "英": 2405,
      "茶": 2406,
      "荐": 2407,
      "荔": 2408,
      "荘": 2409,
      "荚": 2410,
      "荷": 2411,
      "莉": 2412,
      "莱": 2413,
      "莽": 2414,
      "菲": 2415,
      "萌": 2416,
      "萝": 2417,
      "萬": 2418,
      "落": 2419,
      "葉": 2420,
      "薯": 2421,
      "號": 2422,
      "蟠": 2423,
      "行": 2424,
      "術": 2425,
      "街": 2426,
      "衣": 2427,
      "表": 2428,
      "被": 2429,
      "装": 2430,
      "襤": 2431,
      "西": 2432,
      "要": 2433,
      "視": 2434,
      "覚": 2435,
      "覧": 2436,
      "覺": 2437,
      "见": 2438,
      "观": 2439,
      "规": 2440,
      "视": 2441,
      "觉": 2442,
      "角": 2443,
      "解": 2444,
      "言": 2445,
      "訊": 2446,
      "記": 2447,
      "診": 2448,
      "話": 2449,
      "語": 2450,
      "說": 2451,
      "論": 2452,
      "謎": 2453,
      "護": 2454,
      "讃": 2455,
      "讓": 2456,
      "讚": 2457,
      "计": 2458,
      "订": 2459,
      "让": 2460,
      "议": 2461,
      "论": 2462,
      "设": 2463,
      "访": 2464,
      "评": 2465,
      "识": 2466,
      "词": 2467,
      "详": 2468,
      "语": 2469,
      "请": 2470,
      "诺": 2471,
      "调": 2472,
      "谋": 2473,
      "谢": 2474,
      "豆": 2475,
      "豊": 2476,
      "豌": 2477,
      "貓": 2478,
      "費": 2479,
      "貼": 2480,
      "質": 2481,
      "贈": 2482,
      "货": 2483,
      "购": 2484,
      "贴": 2485,
      "贸": 2486,
      "费": 2487,
      "赚": 2488,
      "赛": 2489,
      "赞": 2490,
      "赠": 2491,
      "赤": 2492,
      "超": 2493,
      "越": 2494,
      "跆": 2495,
      "路": 2496,
      "踪": 2497,
      "躇": 2498,
      "躊": 2499,
      "軍": 2500,
      "軽": 2501,
      "載": 2502,
      "车": 2503,
      "转": 2504,
      "载": 2505,
      "较": 2506,
      "辐": 2507,
      "输": 2508,
      "辰": 2509,
      "边": 2510,
      "达": 2511,
      "过": 2512,
      "迎": 2513,
      "运": 2514,
      "近": 2515,
      "返": 2516,
      "还": 2517,
      "这": 2518,
      "进": 2519,
      "远": 2520,
      "述": 2521,
      "追": 2522,
      "送": 2523,
      "适": 2524,
      "选": 2525,
      "递": 2526,
      "途": 2527,
      "這": 2528,
      "通": 2529,
      "速": 2530,
      "週": 2531,
      "遊": 2532,
      "道": 2533,
      "達": 2534,
      "遞": 2535,
      "邀": 2536,
      "邁": 2537,
      "那": 2538,
      "郊": 2539,
      "部": 2540,
      "都": 2541,
      "鄭": 2542,
      "配": 2543,
      "酒": 2544,
      "里": 2545,
      "重": 2546,
      "野": 2547,
      "量": 2548,
      "金": 2549,
      "鉢": 2550,
      "銅": 2551,
      "鍋": 2552,
      "鑫": 2553,
      "鑼": 2554,
      "钱": 2555,
      "铄": 2556,
      "银": 2557,
      "链": 2558,
      "锅": 2559,
      "错": 2560,
      "键": 2561,
      "镇": 2562,
      "長": 2563,
      "閑": 2564,
      "関": 2565,
      "闇": 2566,
      "门": 2567,
      "问": 2568,
      "闲": 2569,
      "间": 2570,
      "闹": 2571,
      "防": 2572,
      "阳": 2573,
      "阴": 2574,
      "际": 2575,
      "陆": 2576,
      "陈": 2577,
      "陌": 2578,
      "降": 2579,
      "院": 2580,
      "除": 2581,
      "陵": 2582,
      "陶": 2583,
      "陸": 2584,
      "陽": 2585,
      "隋": 2586,
      "随": 2587,
      "难": 2588,
      "雅": 2589,
      "雨": 2590,
      "雪": 2591,
      "雲": 2592,
      "零": 2593,
      "電": 2594,
      "霍": 2595,
      "青": 2596,
      "静": 2597,
      "非": 2598,
      "靠": 2599,
      "面": 2600,
      "韩": 2601,
      "音": 2602,
      "韵": 2603,
      "順": 2604,
      "頌": 2605,
      "領": 2606,
      "頭": 2607,
      "頼": 2608,
      "顔": 2609,
      "願": 2610,
      "顯": 2611,
      "页": 2612,
      "顶": 2613,
      "顾": 2614,
      "顿": 2615,
      "颂": 2616,
      "预": 2617,
      "频": 2618,
      "颖": 2619,
      "题": 2620,
      "風": 2621,
      "风": 2622,
      "飘": 2623,
      "食": 2624,
      "飼": 2625,
      "餐": 2626,
      "館": 2627,
      "餽": 2628,
      "饋": 2629,
      "饭": 2630,
      "饰": 2631,
      "饲": 2632,
      "馆": 2633,
      "馈": 2634,
      "首": 2635,
      "香": 2636,
      "駅": 2637,
      "马": 2638,
      "验": 2639,
      "骨": 2640,
      "體": 2641,
      "高": 2642,
      "鲤": 2643,
      "鹅": 2644,
      "鹤": 2645,
      "麗": 2646,
      "麻": 2647,
      "黄": 2648,
      "黑": 2649,
      "黒": 2650,
      "黔": 2651,
      "黨": 2652,
      "鼠": 2653,
      "齎": 2654,
      "齐": 2655,
      "龍": 2656,
      "龙": 2657,
      "꒰": 2658,
      "꒳": 2659,
      "ꔊ": 2660,
      "ꜱ": 2661,
      "ꭰ": 2662,
      "ꭼ": 2663,
      "ꮇ": 2664,
      "ꮎ": 2665,
      "ꮑ": 2666,
      "ꮢ": 2667,
      "ꮮ": 2668,
      "ꮶ": 2669,
      "가": 2670,
      "간": 2671,
      "감": 2672,
      "강": 2673,
      "개": 2674,
      "거": 2675,
      "건": 2676,
      "걸": 2677,
      "검": 2678,
      "것": 2679,
      "게": 2680,
      "겐": 2681,
      "겠": 2682,
      "경": 2683,
      "곁": 2684,
      "계": 2685,
      "고": 2686,
      "골": 2687,
      "공": 2688,
      "과": 2689,
      "관": 2690,
      "광": 2691,
      "구": 2692,
      "국": 2693,
      "군": 2694,
      "굴": 2695,
      "굿": 2696,
      "권": 2697,
      "균": 2698,
      "그": 2699,
      "근": 2700,
      "글": 2701,
      "기": 2702,
      "까": 2703,
      "깨": 2704,
      "께": 2705,
      "뀐": 2706,
      "끄": 2707,
      "끗": 2708,
      "나": 2709,
      "날": 2710,
      "남": 2711,
      "낫": 2712,
      "너": 2713,
      "널": 2714,
      "넘": 2715,
      "네": 2716,
      "넷": 2717,
      "녀": 2718,
      "년": 2719,
      "녕": 2720,
      "노": 2721,
      "놀": 2722,
      "눇": 2723,
      "눈": 2724,
      "눉": 2725,
      "눱": 2726,
      "는": 2727,
      "늘": 2728,
      "능": 2729,
      "니": 2730,
      "님": 2731,
      "닝": 2732,
      "다": 2733,
      "닥": 2734,
      "단": 2735,
      "닷": 2736,
      "당": 2737,
      "대": 2738,
      "더": 2739,
      "덕": 2740,
      "던": 2741,
      "데": 2742,
      "도": 2743,
      "동": 2744,
      "되": 2745,
      "두": 2746,
      "둘": 2747,
      "드": 2748,
      "든": 2749,
      "들": 2750,
      "디": 2751,
      "따": 2752,
      "딸": 2753,
      "떨": 2754,
      "또": 2755,
      "라": 2756,
      "람": 2757,
      "랑": 2758,
      "래": 2759,
      "랙": 2760,
      "랜": 2761,
      "램": 2762,
      "량": 2763,
      "러": 2764,
      "런": 2765,
      "럽": 2766,
      "레": 2767,
      "령": 2768,
      "로": 2769,
      "록": 2770,
      "료": 2771,
      "룡": 2772,
      "룩": 2773,
      "룸": 2774,
      "류": 2775,
      "를": 2776,
      "름": 2777,
      "리": 2778,
      "림": 2779,
      "립": 2780,
      "마": 2781,
      "만": 2782,
      "많": 2783,
      "말": 2784,
      "맞": 2785,
      "매": 2786,
      "먹": 2787,
      "멍": 2788,
      "메": 2789,
      "며": 2790,
      "면": 2791,
      "명": 2792,
      "모": 2793,
      "목": 2794,
      "몬": 2795,
      "몰": 2796,
      "무": 2797,
      "문": 2798,
      "미": 2799,
      "믹": 2800,
      "민": 2801,
      "믿": 2802,
      "바": 2803,
      "박": 2804,
      "반": 2805,
      "발": 2806,
      "밤": 2807,
      "방": 2808,
      "배": 2809,
      "백": 2810,
      "버": 2811,
      "번": 2812,
      "법": 2813,
      "베": 2814,
      "병": 2815,
      "보": 2816,
      "부": 2817,
      "북": 2818,
      "분": 2819,
      "불": 2820,
      "브": 2821,
      "블": 2822,
      "비": 2823,
      "빈": 2824,
      "빛": 2825,
      "뻥": 2826,
      "사": 2827,
      "산": 2828,
      "상": 2829,
      "생": 2830,
      "서": 2831,
      "선": 2832,
      "설": 2833,
      "섭": 2834,
      "섯": 2835,
      "성": 2836,
      "세": 2837,
      "셀": 2838,
      "션": 2839,
      "소": 2840,
      "속": 2841,
      "쇄": 2842,
      "쇼": 2843,
      "수": 2844,
      "술": 2845,
      "숮": 2846,
      "쉬": 2847,
      "스": 2848,
      "습": 2849,
      "승": 2850,
      "시": 2851,
      "식": 2852,
      "신": 2853,
      "실": 2854,
      "심": 2855,
      "싼": 2856,
      "아": 2857,
      "안": 2858,
      "애": 2859,
      "액": 2860,
      "앤": 2861,
      "앰": 2862,
      "야": 2863,
      "양": 2864,
      "얘": 2865,
      "어": 2866,
      "언": 2867,
      "얼": 2868,
      "업": 2869,
      "엇": 2870,
      "었": 2871,
      "에": 2872,
      "엑": 2873,
      "여": 2874,
      "역": 2875,
      "연": 2876,
      "열": 2877,
      "염": 2878,
      "영": 2879,
      "예": 2880,
      "오": 2881,
      "와": 2882,
      "왔": 2883,
      "외": 2884,
      "요": 2885,
      "용": 2886,
      "우": 2887,
      "운": 2888,
      "원": 2889,
      "위": 2890,
      "유": 2891,
      "윳": 2892,
      "으": 2893,
      "은": 2894,
      "을": 2895,
      "음": 2896,
      "의": 2897,
      "이": 2898,
      "인": 2899,
      "일": 2900,
      "읽": 2901,
      "입": 2902,
      "있": 2903,
      "자": 2904,
      "장": 2905,
      "쟈": 2906,
      "저": 2907,
      "적": 2908,
      "전": 2909,
      "접": 2910,
      "제": 2911,
      "젠": 2912,
      "젼": 2913,
      "졌": 2914,
      "조": 2915,
      "종": 2916,
      "좋": 2917,
      "주": 2918,
      "죽": 2919,
      "준": 2920,
      "줄": 2921,
      "줌": 2922,
      "중": 2923,
      "즘": 2924,
      "지": 2925,
      "직": 2926,
      "진": 2927,
      "질": 2928,
      "집": 2929,
      "징": 2930,
      "짧": 2931,
      "째": 2932,
      "차": 2933,
      "찰": 2934,
      "채": 2935,
      "책": 2936,
      "챨": 2937,
      "첫": 2938,
      "체": 2939,
      "초": 2940,
      "촉": 2941,
      "최": 2942,
      "출": 2943,
      "취": 2944,
      "치": 2945,
      "친": 2946,
      "칠": 2947,
      "침": 2948,
      "카": 2949,
      "칸": 2950,
      "캣": 2951,
      "커": 2952,
      "컬": 2953,
      "코": 2954,
      "콜": 2955,
      "크": 2956,
      "키": 2957,
      "킹": 2958,
      "타": 2959,
      "탄": 2960,
      "태": 2961,
      "택": 2962,
      "터": 2963,
      "턺": 2964,
      "테": 2965,
      "텔": 2966,
      "템": 2967,
      "토": 2968,
      "톤": 2969,
      "통": 2970,
      "투": 2971,
      "튜": 2972,
      "트": 2973,
      "티": 2974,
      "팅": 2975,
      "파": 2976,
      "팔": 2977,
      "패": 2978,
      "페": 2979,
      "펠": 2980,
      "편": 2981,
      "평": 2982,
      "포": 2983,
      "폴": 2984,
      "표": 2985,
      "풀": 2986,
      "품": 2987,
      "풍": 2988,
      "프": 2989,
      "플": 2990,
      "피": 2991,
      "필": 2992,
      "핑": 2993,
      "하": 2994,
      "학": 2995,
      "한": 2996,
      "할": 2997,
      "함": 2998,
      "항": 2999,
      "해": 3000,
      "했": 3001,
      "행": 3002,
      "헨": 3003,
      "현": 3004,
      "형": 3005,
      "호": 3006,
      "홈": 3007,
      "홍": 3008,
      "화": 3009,
      "환": 3010,
      "활": 3011,
      "효": 3012,
      "후": 3013,
      "히": 3014,
      "": 3015,
      "": 3016,
      "": 3017,
      "": 3018,
      "": 3019,
      "": 3020,
      "": 3021,
      "": 3022,
      "": 3023,
      "": 3024,
      "": 3025,
      "": 3026,
      "": 3027,
      "": 3028,
      "": 3029,
      "": 3030,
      "": 3031,
      "": 3032,
      "": 3033,
      "": 3034,
      "": 3035,
      "": 3036,
      "": 3037,
      "": 3038,
      "": 3039,
      "": 3040,
      "": 3041,
      "": 3042,
      "": 3043,
      "": 3044,
      "": 3045,
      "": 3046,
      "": 3047,
      "": 3048,
      "": 3049,
      "": 3050,
      "": 3051,
      "": 3052,
      "": 3053,
      "": 3054,
      "": 3055,
      "": 3056,
      "": 3057,
      "": 3058,
      "": 3059,
      "": 3060,
      "": 3061,
      "": 3062,
      "": 3063,
      "": 3064,
      "": 3065,
      "": 3066,
      "": 3067,
      "": 3068,
      "": 3069,
      "": 3070,
      "": 3071,
      "": 3072,
      "": 3073,
      "": 3074,
      "": 3075,
      "": 3076,
      "": 3077,
      "": 3078,
      "": 3079,
      "": 3080,
      "": 3081,
      "": 3082,
      "": 3083,
      "": 3084,
      "": 3085,
      "": 3086,
      "": 3087,
      "": 3088,
      "": 3089,
      "": 3090,
      "": 3091,
      "": 3092,
      "": 3093,
      "": 3094,
      "": 3095,
      "": 3096,
      "": 3097,
      "": 3098,
      "": 3099,
      "": 3100,
      "": 3101,
      "": 3102,
      "": 3103,
      "": 3104,
      "": 3105,
      "": 3106,
      "": 3107,
      "": 3108,
      "": 3109,
      "": 3110,
      "": 3111,
      "": 3112,
      "": 3113,
      "": 3114,
      "": 3115,
      "": 3116,
      "": 3117,
      "": 3118,
      "": 3119,
      "": 3120,
      "": 3121,
      "": 3122,
      "": 3123,
      "": 3124,
      "": 3125,
      "": 3126,
      "": 3127,
      "": 3128,
      "": 3129,
      "": 3130,
      "": 3131,
      "": 3132,
      "": 3133,
      "": 3134,
      "": 3135,
      "": 3136,
      "": 3137,
      "": 3138,
      "": 3139,
      "": 3140,
      "": 3141,
      "": 3142,
      "": 3143,
      "": 3144,
      "": 3145,
      "": 3146,
      "": 3147,
      "": 3148,
      "": 3149,
      "": 3150,
      "": 3151,
      "": 3152,
      "": 3153,
      "": 3154,
      "": 3155,
      "": 3156,
      "": 3157,
      "": 3158,
      "": 3159,
      "": 3160,
      "": 3161,
      "": 3162,
      "": 3163,
      "": 3164,
      "": 3165,
      "": 3166,
      "": 3167,
      "": 3168,
      "": 3169,
      "": 3170,
      "": 3171,
      "": 3172,
      "": 3173,
      "": 3174,
      "": 3175,
      "": 3176,
      "": 3177,
      "": 3178,
      "": 3179,
      "": 3180,
      "": 3181,
      "": 3182,
      "": 3183,
      "": 3184,
      "": 3185,
      "": 3186,
      "": 3187,
      "": 3188,
      "﴾": 3189,
      "﴿": 3190,
      "﷽": 3191,
      "︎": 3192,
      "️": 3193,
      "﻿": 3194,
      "￼": 3195,
      "�": 3196,
      "￾": 3197,
      "￿": 3198,
      "𐰇": 3199,
      "𐰰": 3200,
      "𐰼": 3201,
      "𐱅": 3202,
      "🀄": 3203,
      "🃏": 3204,
      "🅰": 3205,
      "🅱": 3206,
      "🅲": 3207,
      "🅳": 3208,
      "🅴": 3209,
      "🅵": 3210,
      "🅶": 3211,
      "🅷": 3212,
      "🅸": 3213,
      "🅺": 3214,
      "🅻": 3215,
      "🅼": 3216,
      "🅽": 3217,
      "🅾": 3218,
      "🅿": 3219,
      "🆁": 3220,
      "🆂": 3221,
      "🆃": 3222,
      "🆄": 3223,
      "🆅": 3224,
      "🆈": 3225,
      "🆉": 3226,
      "🆓": 3227,
      "🆔": 3228,
      "🆕": 3229,
      "🆗": 3230,
      "🆘": 3231,
      "🆚": 3232,
      "🇦": 3233,
      "🇧": 3234,
      "🇨": 3235,
      "🇩": 3236,
      "🇪": 3237,
      "🇫": 3238,
      "🇬": 3239,
      "🇭": 3240,
      "🇮": 3241,
      "🇯": 3242,
      "🇰": 3243,
      "🇱": 3244,
      "🇲": 3245,
      "🇳": 3246,
      "🇴": 3247,
      "🇵": 3248,
      "🇷": 3249,
      "🇸": 3250,
      "🇹": 3251,
      "🇺": 3252,
      "🇻": 3253,
      "🇽": 3254,
      "🇾": 3255,
      "🇿": 3256,
      "🌀": 3257,
      "🌂": 3258,
      "🌃": 3259,
      "🌄": 3260,
      "🌅": 3261,
      "🌆": 3262,
      "🌇": 3263,
      "🌈": 3264,
      "🌉": 3265,
      "🌊": 3266,
      "🌋": 3267,
      "🌌": 3268,
      "🌍": 3269,
      "🌎": 3270,
      "🌏": 3271,
      "🌐": 3272,
      "🌑": 3273,
      "🌒": 3274,
      "🌕": 3275,
      "🌘": 3276,
      "🌙": 3277,
      "🌚": 3278,
      "🌛": 3279,
      "🌜": 3280,
      "🌝": 3281,
      "🌞": 3282,
      "🌟": 3283,
      "🌠": 3284,
      "🌡": 3285,
      "🌤": 3286,
      "🌦": 3287,
      "🌧": 3288,
      "🌩": 3289,
      "🌪": 3290,
      "🌬": 3291,
      "🌮": 3292,
      "🌯": 3293,
      "🌰": 3294,
      "🌱": 3295,
      "🌲": 3296,
      "🌳": 3297,
      "🌴": 3298,
      "🌵": 3299,
      "🌶": 3300,
      "🌷": 3301,
      "🌸": 3302,
      "🌹": 3303,
      "🌺": 3304,
      "🌻": 3305,
      "🌼": 3306,
      "🌽": 3307,
      "🌾": 3308,
      "🌿": 3309,
      "🍀": 3310,
      "🍁": 3311,
      "🍂": 3312,
      "🍃": 3313,
      "🍄": 3314,
      "🍅": 3315,
      "🍆": 3316,
      "🍇": 3317,
      "🍈": 3318,
      "🍉": 3319,
      "🍊": 3320,
      "🍋": 3321,
      "🍌": 3322,
      "🍍": 3323,
      "🍎": 3324,
      "🍏": 3325,
      "🍐": 3326,
      "🍑": 3327,
      "🍒": 3328,
      "🍓": 3329,
      "🍔": 3330,
      "🍕": 3331,
      "🍖": 3332,
      "🍗": 3333,
      "🍚": 3334,
      "🍜": 3335,
      "🍝": 3336,
      "🍞": 3337,
      "🍟": 3338,
      "🍤": 3339,
      "🍥": 3340,
      "🍦": 3341,
      "🍧": 3342,
      "🍨": 3343,
      "🍩": 3344,
      "🍪": 3345,
      "🍫": 3346,
      "🍬": 3347,
      "🍭": 3348,
      "🍯": 3349,
      "🍰": 3350,
      "🍲": 3351,
      "🍳": 3352,
      "🍴": 3353,
      "🍵": 3354,
      "🍶": 3355,
      "🍷": 3356,
      "🍸": 3357,
      "🍹": 3358,
      "🍺": 3359,
      "🍻": 3360,
      "🍼": 3361,
      "🍽": 3362,
      "🍾": 3363,
      "🎀": 3364,
      "🎁": 3365,
      "🎂": 3366,
      "🎃": 3367,
      "🎄": 3368,
      "🎅": 3369,
      "🎆": 3370,
      "🎇": 3371,
      "🎈": 3372,
      "🎉": 3373,
      "🎊": 3374,
      "🎋": 3375,
      "🎌": 3376,
      "🎐": 3377,
      "🎒": 3378,
      "🎓": 3379,
      "🎖": 3380,
      "🎗": 3381,
      "🎙": 3382,
      "🎞": 3383,
      "🎟": 3384,
      "🎠": 3385,
      "🎡": 3386,
      "🎣": 3387,
      "🎤": 3388,
      "🎥": 3389,
      "🎧": 3390,
      "🎨": 3391,
      "🎩": 3392,
      "🎪": 3393,
      "🎫": 3394,
      "🎬": 3395,
      "🎭": 3396,
      "🎮": 3397,
      "🎯": 3398,
      "🎰": 3399,
      "🎲": 3400,
      "🎳": 3401,
      "🎴": 3402,
      "🎵": 3403,
      "🎶": 3404,
      "🎸": 3405,
      "🎹": 3406,
      "🎺": 3407,
      "🎻": 3408,
      "🎼": 3409,
      "🎾": 3410,
      "🏁": 3411,
      "🏃": 3412,
      "🏄": 3413,
      "🏅": 3414,
      "🏆": 3415,
      "🏇": 3416,
      "🏈": 3417,
      "🏊": 3418,
      "🏋": 3419,
      "🏍": 3420,
      "🏐": 3421,
      "🏓": 3422,
      "🏔": 3423,
      "🏕": 3424,
      "🏖": 3425,
      "🏗": 3426,
      "🏘": 3427,
      "🏙": 3428,
      "🏛": 3429,
      "🏜": 3430,
      "🏝": 3431,
      "🏞": 3432,
      "🏠": 3433,
      "🏡": 3434,
      "🏢": 3435,
      "🏣": 3436,
      "🏤": 3437,
      "🏦": 3438,
      "🏧": 3439,
      "🏨": 3440,
      "🏩": 3441,
      "🏫": 3442,
      "🏬": 3443,
      "🏮": 3444,
      "🏯": 3445,
      "🏰": 3446,
      "🏳": 3447,
      "🏴": 3448,
      "🏵": 3449,
      "🏷": 3450,
      "🏸": 3451,
      "🏻": 3452,
      "🏼": 3453,
      "🏽": 3454,
      "🏾": 3455,
      "🏿": 3456,
      "🐀": 3457,
      "🐂": 3458,
      "🐃": 3459,
      "🐄": 3460,
      "🐆": 3461,
      "🐇": 3462,
      "🐈": 3463,
      "🐉": 3464,
      "🐊": 3465,
      "🐌": 3466,
      "🐍": 3467,
      "🐎": 3468,
      "🐏": 3469,
      "🐐": 3470,
      "🐑": 3471,
      "🐒": 3472,
      "🐔": 3473,
      "🐕": 3474,
      "🐗": 3475,
      "🐘": 3476,
      "🐙": 3477,
      "🐚": 3478,
      "🐛": 3479,
      "🐜": 3480,
      "🐝": 3481,
      "🐞": 3482,
      "🐟": 3483,
      "🐠": 3484,
      "🐡": 3485,
      "🐢": 3486,
      "🐣": 3487,
      "🐤": 3488,
      "🐥": 3489,
      "🐦": 3490,
      "🐧": 3491,
      "🐨": 3492,
      "🐩": 3493,
      "🐪": 3494,
      "🐫": 3495,
      "🐬": 3496,
      "🐭": 3497,
      "🐮": 3498,
      "🐯": 3499,
      "🐰": 3500,
      "🐱": 3501,
      "🐲": 3502,
      "🐳": 3503,
      "🐴": 3504,
      "🐵": 3505,
      "🐶": 3506,
      "🐷": 3507,
      "🐸": 3508,
      "🐹": 3509,
      "🐺": 3510,
      "🐻": 3511,
      "🐼": 3512,
      "🐾": 3513,
      "🐿": 3514,
      "👀": 3515,
      "👁": 3516,
      "👂": 3517,
      "👄": 3518,
      "👅": 3519,
      "👆": 3520,
      "👇": 3521,
      "👈": 3522,
      "👉": 3523,
      "👊": 3524,
      "👋": 3525,
      "👌": 3526,
      "👍": 3527,
      "👎": 3528,
      "👏": 3529,
      "👐": 3530,
      "👑": 3531,
      "👒": 3532,
      "👔": 3533,
      "👕": 3534,
      "👖": 3535,
      "👗": 3536,
      "👘": 3537,
      "👙": 3538,
      "👚": 3539,
      "👛": 3540,
      "👜": 3541,
      "👞": 3542,
      "👟": 3543,
      "👠": 3544,
      "👡": 3545,
      "👣": 3546,
      "👤": 3547,
      "👥": 3548,
      "👦": 3549,
      "👧": 3550,
      "👨": 3551,
      "👩": 3552,
      "👪": 3553,
      "👫": 3554,
      "👬": 3555,
      "👭": 3556,
      "👮": 3557,
      "👯": 3558,
      "👰": 3559,
      "👱": 3560,
      "👲": 3561,
      "👳": 3562,
      "👴": 3563,
      "👵": 3564,
      "👶": 3565,
      "👸": 3566,
      "👹": 3567,
      "👺": 3568,
      "👻": 3569,
      "👼": 3570,
      "👽": 3571,
      "👿": 3572,
      "💀": 3573,
      "💁": 3574,
      "💂": 3575,
      "💃": 3576,
      "💄": 3577,
      "💅": 3578,
      "💆": 3579,
      "💇": 3580,
      "💈": 3581,
      "💉": 3582,
      "💊": 3583,
      "💋": 3584,
      "💌": 3585,
      "💍": 3586,
      "💎": 3587,
      "💏": 3588,
      "💐": 3589,
      "💑": 3590,
      "💒": 3591,
      "💓": 3592,
      "💔": 3593,
      "💕": 3594,
      "💖": 3595,
      "💗": 3596,
      "💘": 3597,
      "💙": 3598,
      "💚": 3599,
      "💛": 3600,
      "💜": 3601,
      "💝": 3602,
      "💞": 3603,
      "💟": 3604,
      "💠": 3605,
      "💡": 3606,
      "💢": 3607,
      "💣": 3608,
      "💤": 3609,
      "💥": 3610,
      "💦": 3611,
      "💧": 3612,
      "💨": 3613,
      "💩": 3614,
      "💪": 3615,
      "💫": 3616,
      "💬": 3617,
      "💭": 3618,
      "💮": 3619,
      "💯": 3620,
      "💰": 3621,
      "💱": 3622,
      "💲": 3623,
      "💳": 3624,
      "💴": 3625,
      "💵": 3626,
      "💶": 3627,
      "💸": 3628,
      "💻": 3629,
      "💼": 3630,
      "💽": 3631,
      "💾": 3632,
      "💿": 3633,
      "📃": 3634,
      "📄": 3635,
      "📅": 3636,
      "📆": 3637,
      "📈": 3638,
      "📊": 3639,
      "📋": 3640,
      "📌": 3641,
      "📍": 3642,
      "📎": 3643,
      "📏": 3644,
      "📐": 3645,
      "📑": 3646,
      "📒": 3647,
      "📓": 3648,
      "📔": 3649,
      "📕": 3650,
      "📖": 3651,
      "📗": 3652,
      "📘": 3653,
      "📙": 3654,
      "📚": 3655,
      "📜": 3656,
      "📝": 3657,
      "📞": 3658,
      "📠": 3659,
      "📡": 3660,
      "📢": 3661,
      "📣": 3662,
      "📤": 3663,
      "📥": 3664,
      "📦": 3665,
      "📧": 3666,
      "📨": 3667,
      "📩": 3668,
      "📬": 3669,
      "📮": 3670,
      "📰": 3671,
      "📱": 3672,
      "📲": 3673,
      "📳": 3674,
      "📶": 3675,
      "📷": 3676,
      "📸": 3677,
      "📹": 3678,
      "📺": 3679,
      "📻": 3680,
      "📽": 3681,
      "📿": 3682,
      "🔀": 3683,
      "🔁": 3684,
      "🔃": 3685,
      "🔄": 3686,
      "🔅": 3687,
      "🔆": 3688,
      "🔇": 3689,
      "🔉": 3690,
      "🔊": 3691,
      "🔋": 3692,
      "🔌": 3693,
      "🔍": 3694,
      "🔎": 3695,
      "🔑": 3696,
      "🔔": 3697,
      "🔖": 3698,
      "🔗": 3699,
      "🔘": 3700,
      "🔙": 3701,
      "🔛": 3702,
      "🔜": 3703,
      "🔝": 3704,
      "🔞": 3705,
      "🔠": 3706,
      "🔡": 3707,
      "🔣": 3708,
      "🔤": 3709,
      "🔥": 3710,
      "🔨": 3711,
      "🔩": 3712,
      "🔪": 3713,
      "🔫": 3714,
      "🔮": 3715,
      "🔯": 3716,
      "🔰": 3717,
      "🔱": 3718,
      "🔲": 3719,
      "🔳": 3720,
      "🔴": 3721,
      "🔵": 3722,
      "🔶": 3723,
      "🔷": 3724,
      "🔸": 3725,
      "🔹": 3726,
      "🔺": 3727,
      "🔻": 3728,
      "🔼": 3729,
      "🔽": 3730,
      "🕊": 3731,
      "🕋": 3732,
      "🕌": 3733,
      "🕍": 3734,
      "🕐": 3735,
      "🕑": 3736,
      "🕒": 3737,
      "🕔": 3738,
      "🕗": 3739,
      "🕠": 3740,
      "🕣": 3741,
      "🕤": 3742,
      "🕥": 3743,
      "🕯": 3744,
      "🕰": 3745,
      "🕳": 3746,
      "🕵": 3747,
      "🕸": 3748,
      "🕹": 3749,
      "🕺": 3750,
      "🖇": 3751,
      "🖊": 3752,
      "🖋": 3753,
      "🖌": 3754,
      "🖍": 3755,
      "🖐": 3756,
      "🖑": 3757,
      "🖒": 3758,
      "🖓": 3759,
      "🖕": 3760,
      "🖖": 3761,
      "🖤": 3762,
      "🖨": 3763,
      "🖱": 3764,
      "🖲": 3765,
      "🖼": 3766,
      "🗒": 3767,
      "🗓": 3768,
      "🗝": 3769,
      "🗣": 3770,
      "🗨": 3771,
      "🗯": 3772,
      "🗳": 3773,
      "🗺": 3774,
      "🗻": 3775,
      "🗼": 3776,
      "🗿": 3777,
      "😀": 3778,
      "😁": 3779,
      "😂": 3780,
      "😃": 3781,
      "😄": 3782,
      "😅": 3783,
      "😆": 3784,
      "😇": 3785,
      "😈": 3786,
      "😉": 3787,
      "😊": 3788,
      "😋": 3789,
      "😌": 3790,
      "😍": 3791,
      "😎": 3792,
      "😏": 3793,
      "😐": 3794,
      "😑": 3795,
      "😒": 3796,
      "😓": 3797,
      "😔": 3798,
      "😕": 3799,
      "😖": 3800,
      "😗": 3801,
      "😘": 3802,
      "😙": 3803,
      "😚": 3804,
      "😛": 3805,
      "😜": 3806,
      "😝": 3807,
      "😞": 3808,
      "😟": 3809,
      "😠": 3810,
      "😡": 3811,
      "😢": 3812,
      "😣": 3813,
      "😤": 3814,
      "😥": 3815,
      "😦": 3816,
      "😧": 3817,
      "😨": 3818,
      "😩": 3819,
      "😪": 3820,
      "😫": 3821,
      "😬": 3822,
      "😭": 3823,
      "😮": 3824,
      "😯": 3825,
      "😰": 3826,
      "😱": 3827,
      "😲": 3828,
      "😳": 3829,
      "😴": 3830,
      "😵": 3831,
      "😶": 3832,
      "😷": 3833,
      "😸": 3834,
      "😹": 3835,
      "😺": 3836,
      "😻": 3837,
      "😼": 3838,
      "😽": 3839,
      "😾": 3840,
      "🙀": 3841,
      "🙁": 3842,
      "🙂": 3843,
      "🙃": 3844,
      "🙄": 3845,
      "🙅": 3846,
      "🙆": 3847,
      "🙇": 3848,
      "🙈": 3849,
      "🙉": 3850,
      "🙊": 3851,
      "🙋": 3852,
      "🙌": 3853,
      "🙏": 3854,
      "🚀": 3855,
      "🚂": 3856,
      "🚅": 3857,
      "🚉": 3858,
      "🚌": 3859,
      "🚏": 3860,
      "🚐": 3861,
      "🚑": 3862,
      "🚗": 3863,
      "🚘": 3864,
      "🚙": 3865,
      "🚚": 3866,
      "🚛": 3867,
      "🚜": 3868,
      "🚢": 3869,
      "🚣": 3870,
      "🚦": 3871,
      "🚨": 3872,
      "🚩": 3873,
      "🚪": 3874,
      "🚫": 3875,
      "🚬": 3876,
      "🚮": 3877,
      "🚲": 3878,
      "🚳": 3879,
      "🚴": 3880,
      "🚵": 3881,
      "🚶": 3882,
      "🚾": 3883,
      "🛀": 3884,
      "🛁": 3885,
      "🛂": 3886,
      "🛃": 3887,
      "🛋": 3888,
      "🛍": 3889,
      "🛎": 3890,
      "🛏": 3891,
      "🛐": 3892,
      "🛑": 3893,
      "🛒": 3894,
      "🛠": 3895,
      "🛡": 3896,
      "🛢": 3897,
      "🛣": 3898,
      "🛥": 3899,
      "🛫": 3900,
      "🛬": 3901,
      "🛳": 3902,
      "🛸": 3903,
      "🤍": 3904,
      "🤎": 3905,
      "🤒": 3906,
      "🤓": 3907,
      "🤔": 3908,
      "🤕": 3909,
      "🤖": 3910,
      "🤗": 3911,
      "🤘": 3912,
      "🤙": 3913,
      "🤚": 3914,
      "🤛": 3915,
      "🤜": 3916,
      "🤝": 3917,
      "🤞": 3918,
      "🤟": 3919,
      "🤠": 3920,
      "🤡": 3921,
      "🤢": 3922,
      "🤣": 3923,
      "🤤": 3924,
      "🤦": 3925,
      "🤧": 3926,
      "🤨": 3927,
      "🤩": 3928,
      "🤪": 3929,
      "🤫": 3930,
      "🤬": 3931,
      "🤭": 3932,
      "🤮": 3933,
      "🤯": 3934,
      "🤰": 3935,
      "🤲": 3936,
      "🤳": 3937,
      "🤴": 3938,
      "🤵": 3939,
      "🤶": 3940,
      "🤷": 3941,
      "🤸": 3942,
      "🤺": 3943,
      "🤼": 3944,
      "🤽": 3945,
      "🤾": 3946,
      "🥀": 3947,
      "🥁": 3948,
      "🥂": 3949,
      "🥃": 3950,
      "🥄": 3951,
      "🥇": 3952,
      "🥋": 3953,
      "🥐": 3954,
      "🥑": 3955,
      "🥒": 3956,
      "🥔": 3957,
      "🥕": 3958,
      "🥗": 3959,
      "🥚": 3960,
      "🥛": 3961,
      "🥜": 3962,
      "🥝": 3963,
      "🥠": 3964,
      "🥥": 3965,
      "🥧": 3966,
      "🥨": 3967,
      "🥩": 3968,
      "🥰": 3969,
      "🥱": 3970,
      "🥳": 3971,
      "🥴": 3972,
      "🥵": 3973,
      "🥶": 3974,
      "🥺": 3975,
      "🦀": 3976,
      "🦁": 3977,
      "🦂": 3978,
      "🦃": 3979,
      "🦄": 3980,
      "🦅": 3981,
      "🦆": 3982,
      "🦇": 3983,
      "🦉": 3984,
      "🦋": 3985,
      "🦌": 3986,
      "🦍": 3987,
      "🦎": 3988,
      "🦑": 3989,
      "🦕": 3990,
      "🦗": 3991,
      "🦜": 3992,
      "🦢": 3993,
      "🧁": 3994,
      "🧐": 3995,
      "🧒": 3996,
      "🧘": 3997,
      "🧚": 3998,
      "🧜": 3999,
      "🧠": 4000,
      "🧡": 4001,
      "🧢": 4002,
      "🧤": 4003,
      "🧦": 4004,
      "🧬": 4005,
      "🧭": 4006,
      "🧳": 4007,
      "🧶": 4008,
      "🧸": 4009,
      "🧿": 4010,
      "🪐": 4011,
      "򡤿": 4012,
      "󣬰": 4013,
      "󰀃": 4014,
      "󰀄": 4015,
      "󰀙": 4016,
      "󹬣": 4017,
      "󾠬": 4018,
      "􀀟": 4019,
      "ar": 4020,
      "er": 4021,
      "an": 4022,
      "in": 4023,
      "en": 4024,
      "il": 4025,
      "ir": 4026,
      "ın": 4027,
      "al": 4028,
      "de": 4029,
      "ak": 4030,
      "el": 4031,
      "da": 4032,
      "lar": 4033,
      "ya": 4034,
      "et": 4035,
      "ek": 4036,
      "ma": 4037,
      "la": 4038,
      "or": 4039,
      "ler": 4040,
      "on": 4041,
      "un": 4042,
      "si": 4043,
      "ve": 4044,
      "ol": 4045,
      "di": 4046,
      "ka": 4047,
      "sa": 4048,
      "me": 4049,
      "ur": 4050,
      "te": 4051,
      "bir": 4052,
      "le": 4053,
      "ta": 4054,
      "li": 4055,
      "iz": 4056,
      "im": 4057,
      "i̇": 4058,
      "ır": 4059,
      "ha": 4060,
      "ba": 4061,
      "ün": 4062,
      "bu": 4063,
      "lı": 4064,
      "iş": 4065,
      "ür": 4066,
      "st": 4067,
      "iy": 4068,
      "sı": 4069,
      "ik": 4070,
      "den": 4071,
      "um": 4072,
      "se": 4073,
      "dı": 4074,
      "bil": 4075,
      "ara": 4076,
      "tı": 4077,
      "ra": 4078,
      "lan": 4079,
      "sin": 4080,
      "ce": 4081,
      "iç": 4082,
      "ok": 4083,
      "dan": 4084,
      "20": 4085,
      "ti": 4086,
      "ul": 4087,
      "gö": 4088,
      "re": 4089,
      "ay": 4090,
      "ye": 4091,
      "mı": 4092,
      "yor": 4093,
      "..": 4094,
      "du": 4095,
      "ını": 4096,
      "ne": 4097,
      "ları": 4098,
      "yı": 4099,
      "üz": 4100,
      "it": 4101,
      "at": 4102,
      "man": 4103,
      "alı": 4104,
      "dir": 4105,
      "ında": 4106,
      "yap": 4107,
      "leri": 4108,
      "ile": 4109,
      "eri": 4110,
      "için": 4111,
      "ki": 4112,
      "ğı": 4113,
      "baş": 4114,
      "uz": 4115,
      "mak": 4116,
      "ca": 4117,
      "ük": 4118,
      "is": 4119,
      "ön": 4120,
      "arı": 4121,
      "lerin": 4122,
      "201": 4123,
      "ge": 4124,
      "gi": 4125,
      "ey": 4126,
      "erin": 4127,
      "ver": 4128,
      "son": 4129,
      "mek": 4130,
      "yan": 4131,
      "üm": 4132,
      "çı": 4133,
      "kar": 4134,
      "şt": 4135,
      "gel": 4136,
      "az": 4137,
      "dır": 4138,
      "to": 4139,
      "ke": 4140,
      "mu": 4141,
      "der": 4142,
      "ül": 4143,
      "do": 4144,
      "şı": 4145,
      "ro": 4146,
      "ına": 4147,
      "be": 4148,
      "cak": 4149,
      "san": 4150,
      "kı": 4151,
      "kon": 4152,
      "öz": 4153,
      "gün": 4154,
      "lu": 4155,
      "va": 4156,
      "lik": 4157,
      "he": 4158,
      "ken": 4159,
      "bi": 4160,
      "tür": 4161,
      "us": 4162,
      "ği": 4163,
      "cı": 4164,
      "ci": 4165,
      "za": 4166,
      "kan": 4167,
      "bul": 4168,
      "şa": 4169,
      "lık": 4170,
      "ların": 4171,
      "mi": 4172,
      "ut": 4173,
      "fa": 4174,
      "mal": 4175,
      "ger": 4176,
      "ko": 4177,
      "ğin": 4178,
      "len": 4179,
      "yen": 4180,
      "tan": 4181,
      "kal": 4182,
      "kur": 4183,
      "ev": 4184,
      "uy": 4185,
      "bel": 4186,
      "uk": 4187,
      "oldu": 4188,
      "iyor": 4189,
      "dil": 4190,
      "na": 4191,
      "öy": 4192,
      "zı": 4193,
      "met": 4194,
      "miş": 4195,
      "bilir": 4196,
      "aki": 4197,
      "yon": 4198,
      "bo": 4199,
      "larak": 4200,
      "değ": 4201,
      "çok": 4202,
      "siz": 4203,
      "hi": 4204,
      "tir": 4205,
      "mü": 4206,
      "tar": 4207,
      "00": 4208,
      "ber": 4209,
      "ine": 4210,
      "iye": 4211,
      "...": 4212,
      "as": 4213,
      "gör": 4214,
      "her": 4215,
      "ması": 4216,
      "men": 4217,
      "var": 4218,
      "kul": 4219,
      "ör": 4220,
      "olarak": 4221,
      "unu": 4222,
      "cek": 4223,
      "tem": 4224,
      "yük": 4225,
      "ter": 4226,
      "türk": 4227,
      "dü": 4228,
      "kad": 4229,
      "es": 4230,
      "hal": 4231,
      "ğr": 4232,
      "yapı": 4233,
      "ından": 4234,
      "olan": 4235,
      "bü": 4236,
      "dur": 4237,
      "öl": 4238,
      "ben": 4239,
      "tel": 4240,
      "yıl": 4241,
      "yat": 4242,
      "yer": 4243,
      "tek": 4244,
      "iler": 4245,
      "mo": 4246,
      "yar": 4247,
      "par": 4248,
      "daha": 4249,
      "ri": 4250,
      "ama": 4251,
      "ili": 4252,
      "mer": 4253,
      "so": 4254,
      "bak": 4255,
      "kullan": 4256,
      "ola": 4257,
      "ğu": 4258,
      "em": 4259,
      "pro": 4260,
      "ad": 4261,
      "fi": 4262,
      "10": 4263,
      "gen": 4264,
      "çık": 4265,
      "sür": 4266,
      "co": 4267,
      "inde": 4268,
      "olu": 4269,
      "su": 4270,
      "alan": 4271,
      "geç": 4272,
      "çek": 4273,
      "sel": 4274,
      "sor": 4275,
      "öyle": 4276,
      "ının": 4277,
      "ım": 4278,
      "mas": 4279,
      "vi": 4280,
      "sp": 4281,
      "yorum": 4282,
      "ini": 4283,
      "imiz": 4284,
      "çe": 4285,
      "gü": 4286,
      "eli": 4287,
      "lü": 4288,
      "ça": 4289,
      "top": 4290,
      "yet": 4291,
      "let": 4292,
      "sun": 4293,
      "alar": 4294,
      "tr": 4295,
      "oy": 4296,
      "daki": 4297,
      "stan": 4298,
      "eler": 4299,
      "sağ": 4300,
      "mış": 4301,
      "sen": 4302,
      "han": 4303,
      "çalı": 4304,
      "lah": 4305,
      "i̇n": 4306,
      "mesi": 4307,
      "ih": 4308,
      "gibi": 4309,
      "hak": 4310,
      "edi": 4311,
      "sinde": 4312,
      "ser": 4313,
      "ban": 4314,
      "lama": 4315,
      "sonra": 4316,
      "zaman": 4317,
      "yön": 4318,
      "pa": 4319,
      "cu": 4320,
      "şek": 4321,
      "hat": 4322,
      "biz": 4323,
      "göre": 4324,
      "kay": 4325,
      "yeni": 4326,
      "din": 4327,
      "gerek": 4328,
      "am": 4329,
      "bun": 4330,
      "ten": 4331,
      "--": 4332,
      "şe": 4333,
      "19": 4334,
      "yla": 4335,
      "12": 4336,
      "ster": 4337,
      "har": 4338,
      "öne": 4339,
      "ho": 4340,
      "sal": 4341,
      "ada": 4342,
      "yi": 4343,
      "bulun": 4344,
      "gu": 4345,
      "tak": 4346,
      "ştır": 4347,
      "dik": 4348,
      "eti": 4349,
      "per": 4350,
      "tur": 4351,
      "lo": 4352,
      "mız": 4353,
      "yak": 4354,
      "larını": 4355,
      "özel": 4356,
      "ab": 4357,
      "eğ": 4358,
      "inin": 4359,
      "anla": 4360,
      "çalış": 4361,
      "ıl": 4362,
      "arka": 4363,
      "konu": 4364,
      "ru": 4365,
      "ğını": 4366,
      "ço": 4367,
      "dığı": 4368,
      "unda": 4369,
      "tır": 4370,
      "sek": 4371,
      "bur": 4372,
      "tara": 4373,
      "lara": 4374,
      "kadar": 4375,
      "allah": 4376,
      "olma": 4377,
      "ız": 4378,
      "böl": 4379,
      "cel": 4380,
      "for": 4381,
      "yaz": 4382,
      "kü": 4383,
      "15": 4384,
      "mil": 4385,
      "tesi": 4386,
      "kap": 4387,
      "düş": 4388,
      "gir": 4389,
      "bet": 4390,
      "bile": 4391,
      "sında": 4392,
      "büyük": 4393,
      "başkan": 4394,
      "edil": 4395,
      "can": 4396,
      "öğr": 4397,
      "po": 4398,
      "karşı": 4399,
      "tal": 4400,
      "nin": 4401,
      "say": 4402,
      "11": 4403,
      "önem": 4404,
      "yüz": 4405,
      "kiş": 4406,
      "dım": 4407,
      "ede": 4408,
      "haber": 4409,
      "siniz": 4410,
      "ist": 4411,
      "taraf": 4412,
      "alt": 4413,
      "sev": 4414,
      "kat": 4415,
      "art": 4416,
      "şu": 4417,
      "haz": 4418,
      "türkiye": 4419,
      "açık": 4420,
      "iyi": 4421,
      "düz": 4422,
      "sine": 4423,
      "dün": 4424,
      "ise": 4425,
      "erine": 4426,
      "kor": 4427,
      "yal": 4428,
      "dür": 4429,
      "ran": 4430,
      "mekte": 4431,
      "tü": 4432,
      "makta": 4433,
      "diğ": 4434,
      "if": 4435,
      "imi": 4436,
      "daş": 4437,
      "orta": 4438,
      "yol": 4439,
      "lerini": 4440,
      "lem": 4441,
      "i̇l": 4442,
      "maya": 4443,
      "olduğ": 4444,
      "veya": 4445,
      "yaş": 4446,
      "i̇ş": 4447,
      "ilen": 4448,
      "bek": 4449,
      "tl": 4450,
      "belir": 4451,
      "şey": 4452,
      "ah": 4453,
      "ğini": 4454,
      "ku": 4455,
      "kara": 4456,
      "sini": 4457,
      "hiz": 4458,
      "ret": 4459,
      "av": 4460,
      "ip": 4461,
      "13": 4462,
      "maz": 4463,
      "kez": 4464,
      "bin": 4465,
      "com": 4466,
      "dem": 4467,
      "14": 4468,
      "kin": 4469,
      "yok": 4470,
      "iyet": 4471,
      "ulu": 4472,
      "lığı": 4473,
      "iyle": 4474,
      "doğ": 4475,
      "tık": 4476,
      "kendi": 4477,
      "oto": 4478,
      "önce": 4479,
      "tüm": 4480,
      "far": 4481,
      "hizmet": 4482,
      "ven": 4483,
      "sta": 4484,
      "16": 4485,
      "laş": 4486,
      "malar": 4487,
      "id": 4488,
      "yın": 4489,
      "sim": 4490,
      "sın": 4491,
      "seç": 4492,
      "gerçek": 4493,
      "bah": 4494,
      "diği": 4495,
      "spor": 4496,
      "değil": 4497,
      "ala": 4498,
      "ef": 4499,
      "gra": 4500,
      "söz": 4501,
      "lere": 4502,
      "eş": 4503,
      "üc": 4504,
      "insan": 4505,
      "18": 4506,
      "ürün": 4507,
      "sahi": 4508,
      "tik": 4509,
      "ch": 4510,
      "mez": 4511,
      "200": 4512,
      "ayr": 4513,
      "sını": 4514,
      "sü": 4515,
      "get": 4516,
      "göster": 4517,
      "ana": 4518,
      "başla": 4519,
      "cuk": 4520,
      "şeh": 4521,
      "ileri": 4522,
      "sır": 4523,
      "üş": 4524,
      "meye": 4525,
      "oğ": 4526,
      "yazı": 4527,
      "sis": 4528,
      "dev": 4529,
      "göz": 4530,
      "deki": 4531,
      "min": 4532,
      "fil": 4533,
      "larda": 4534,
      "uç": 4535,
      "durum": 4536,
      "os": 4537,
      "net": 4538,
      "ilg": 4539,
      "esi": 4540,
      "ren": 4541,
      "kim": 4542,
      "eleri": 4543,
      "sız": 4544,
      "neden": 4545,
      "eder": 4546,
      "iste": 4547,
      "17": 4548,
      "diye": 4549,
      "anı": 4550,
      "oyun": 4551,
      "gaz": 4552,
      "mektedir": 4553,
      "tas": 4554,
      "mar": 4555,
      "sıl": 4556,
      "no": 4557,
      "bilirsiniz": 4558,
      "leme": 4559,
      "tarafından": 4560,
      "ştur": 4561,
      "değiş": 4562,
      "dar": 4563,
      "elik": 4564,
      "güz": 4565,
      "30": 4566,
      "aret": 4567,
      "i̇b": 4568,
      "ilerin": 4569,
      "nak": 4570,
      "genel": 4571,
      "ilk": 4572,
      "alık": 4573,
      "faz": 4574,
      "şekil": 4575,
      "stanbul": 4576,
      "maktadır": 4577,
      "etti": 4578,
      "ştir": 4579,
      "çocuk": 4580,
      "bağ": 4581,
      "dık": 4582,
      "izi": 4583,
      "iki": 4584,
      "uygu": 4585,
      "deva": 4586,
      "sil": 4587,
      "yur": 4588,
      "liği": 4589,
      "kö": 4590,
      "ere": 4591,
      "olo": 4592,
      "lam": 4593,
      "dünya": 4594,
      "fir": 4595,
      "arkadaş": 4596,
      "zan": 4597,
      "etim": 4598,
      "güzel": 4599,
      "fark": 4600,
      "ali": 4601,
      "25": 4602,
      "öğren": 4603,
      "det": 4604,
      "olduğu": 4605,
      "tör": 4606,
      "bar": 4607,
      "tarih": 4608,
      "i̇z": 4609,
      "usu": 4610,
      "bilgi": 4611,
      "2016": 4612,
      "nın": 4613,
      "tu": 4614,
      "sayı": 4615,
      "hakk": 4616,
      "��": 4617,
      "una": 4618,
      "dedi": 4619,
      "tut": 4620,
      "fiyat": 4621,
      "eğit": 4622,
      "fak": 4623,
      "güven": 4624,
      "arak": 4625,
      "doğr": 4626,
      "mp": 4627,
      "nı": 4628,
      "aç": 4629,
      "alın": 4630,
      "i̇s": 4631,
      "sinin": 4632,
      "kullanı": 4633,
      "miştir": 4634,
      "bit": 4635,
      "yaşa": 4636,
      "2017": 4637,
      "getir": 4638,
      "23": 4639,
      "ecek": 4640,
      "24": 4641,
      "\":": 4642,
      "hem": 4643,
      "ağ": 4644,
      "dön": 4645,
      "go": 4646,
      "olur": 4647,
      "ht": 4648,
      "ji": 4649,
      "larının": 4650,
      "tor": 4651,
      "elerin": 4652,
      "gun": 4653,
      "leş": 4654,
      "hay": 4655,
      "şekilde": 4656,
      "süre": 4657,
      "fazla": 4658,
      "devam": 4659,
      "görün": 4660,
      "saat": 4661,
      "merkez": 4662,
      "hiç": 4663,
      "tay": 4664,
      "ilik": 4665,
      "söyle": 4666,
      "başkanı": 4667,
      "satı": 4668,
      "düzen": 4669,
      "nasıl": 4670,
      "fer": 4671,
      "van": 4672,
      "gön": 4673,
      "i̇stanbul": 4674,
      "yapıl": 4675,
      "pla": 4676,
      "ilgili": 4677,
      "ni": 4678,
      "diğer": 4679,
      "çev": 4680,
      "ket": 4681,
      "tığı": 4682,
      "kadın": 4683,
      "üzerin": 4684,
      "boy": 4685,
      "22": 4686,
      "gı": 4687,
      "sak": 4688,
      "izle": 4689,
      "değer": 4690,
      "açı": 4691,
      "olduğunu": 4692,
      "kita": 4693,
      "cağı": 4694,
      "lerde": 4695,
      "larına": 4696,
      "mayı": 4697,
      "geliş": 4698,
      "yoruz": 4699,
      "sam": 4700,
      "ing": 4701,
      "taş": 4702,
      "yo": 4703,
      "pi": 4704,
      "vur": 4705,
      "üst": 4706,
      "----": 4707,
      "50": 4708,
      "ele": 4709,
      "pe": 4710,
      "beledi": 4711,
      "del": 4712,
      "düşün": 4713,
      "res": 4714,
      "fe": 4715,
      "bey": 4716,
      "önemli": 4717,
      "om": 4718,
      "yüksek": 4719,
      "sahip": 4720,
      "ancak": 4721,
      "ece": 4722,
      "raf": 4723,
      "lerine": 4724,
      "tekn": 4725,
      "cum": 4726,
      "leştir": 4727,
      "lardan": 4728,
      "onu": 4729,
      "gelen": 4730,
      "por": 4731,
      "kır": 4732,
      "sına": 4733,
      "bilg": 4734,
      "i̇bn": 4735,
      "pol": 4736,
      "aynı": 4737,
      "aları": 4738,
      "git": 4739,
      "laşı": 4740,
      "ayrı": 4741,
      "yardım": 4742,
      "zor": 4743,
      "lendir": 4744,
      "sayfa": 4745,
      "kür": 4746,
      "2018": 4747,
      "birlik": 4748,
      "dim": 4749,
      "eğitim": 4750,
      "2019": 4751,
      "aş": 4752,
      "dece": 4753,
      "zi": 4754,
      "maları": 4755,
      "eden": 4756,
      "ga": 4757,
      "lerinin": 4758,
      "bay": 4759,
      "tıl": 4760,
      "unun": 4761,
      "ize": 4762,
      "bölüm": 4763,
      "sat": 4764,
      "sistem": 4765,
      "dığını": 4766,
      "arasında": 4767,
      "belediye": 4768,
      "malı": 4769,
      "pay": 4770,
      "med": 4771,
      ",\"": 4772,
      "yle": 4773,
      "özellik": 4774,
      "içinde": 4775,
      "yayın": 4776,
      "bı": 4777,
      "ış": 4778,
      "mesa": 4779,
      "soh": 4780,
      "of": 4781,
      "kaç": 4782,
      "para": 4783,
      "21": 4784,
      "hazır": 4785,
      "ck": 4786,
      "şi": 4787,
      "kol": 4788,
      "mıştır": 4789,
      "kazan": 4790,
      "haf": 4791,
      "otel": 4792,
      "hur": 4793,
      "ses": 4794,
      "çi": 4795,
      "sohbet": 4796,
      "uzun": 4797,
      "ğü": 4798,
      "tion": 4799,
      "biri": 4800,
      "mad": 4801,
      "si̇": 4802,
      "dış": 4803,
      "we": 4804,
      "olmak": 4805,
      "diğin": 4806,
      "li̇": 4807,
      "ünde": 4808,
      "mir": 4809,
      "__": 4810,
      "doğru": 4811,
      "sitesi": 4812,
      "arım": 4813,
      "mem": 4814,
      "kek": 4815,
      "lay": 4816,
      "ww": 4817,
      "soru": 4818,
      "erek": 4819,
      "larında": 4820,
      "tün": 4821,
      "ans": 4822,
      "asyon": 4823,
      "şehir": 4824,
      "sadece": 4825,
      "ınız": 4826,
      "tama": 4827,
      "böyle": 4828,
      "telef": 4829,
      "26": 4830,
      "ste": 4831,
      "muş": 4832,
      "dr": 4833,
      "09": 4834,
      "site": 4835,
      "28": 4836,
      "onun": 4837,
      "i̇ç": 4838,
      "05": 4839,
      "olacak": 4840,
      "mey": 4841,
      "indir": 4842,
      "tra": 4843,
      "bölge": 4844,
      "val": 4845,
      "gönder": 4846,
      "paz": 4847,
      "yapılan": 4848,
      "ceva": 4849,
      "dest": 4850,
      "larla": 4851,
      "hakkında": 4852,
      "başka": 4853,
      "fır": 4854,
      "lığ": 4855,
      "yanı": 4856,
      "lük": 4857,
      "şir": 4858,
      "mah": 4859,
      "proj": 4860,
      "ücret": 4861,
      "ildi": 4862,
      "bunun": 4863,
      "ham": 4864,
      "farklı": 4865,
      "bol": 4866,
      "abd": 4867,
      "sağlık": 4868,
      "gan": 4869,
      "03": 4870,
      "hangi": 4871,
      "progra": 4872,
      "luk": 4873,
      "oğlu": 4874,
      "birlikte": 4875,
      "08": 4876,
      "27": 4877,
      "2015": 4878,
      "bakan": 4879,
      "his": 4880,
      "kil": 4881,
      "tes": 4882,
      "bas": 4883,
      "ze": 4884,
      "hayat": 4885,
      "rak": 4886,
      "cü": 4887,
      "fen": 4888,
      "oku": 4889,
      "01": 4890,
      "bır": 4891,
      "sik": 4892,
      "kası": 4893,
      "lâ": 4894,
      "pu": 4895,
      "plan": 4896,
      "üni": 4897,
      "iliş": 4898,
      "od": 4899,
      "erkek": 4900,
      "af": 4901,
      "oda": 4902,
      "cin": 4903,
      "acak": 4904,
      "iyorum": 4905,
      "mes": 4906,
      "pek": 4907,
      "rek": 4908,
      "lerinde": 4909,
      "29": 4910,
      "ünü": 4911,
      "06": 4912,
      "üne": 4913,
      "i̇m": 4914,
      "devlet": 4915,
      "çün": 4916,
      "destek": 4917,
      "uygun": 4918,
      "siyon": 4919,
      "ort": 4920,
      "film": 4921,
      "sur": 4922,
      "the": 4923,
      "şöyle": 4924,
      "mev": 4925,
      "karar": 4926,
      "ap": 4927,
      "ac": 4928,
      "duy": 4929,
      "bat": 4930,
      "gin": 4931,
      "kül": 4932,
      "giriş": 4933,
      "layı": 4934,
      "elek": 4935,
      "sos": 4936,
      "07": 4937,
      "ed": 4938,
      "zer": 4939,
      "deniz": 4940,
      "tic": 4941,
      "ard": 4942,
      "02": 4943,
      "şan": 4944,
      "tari": 4945,
      "lerden": 4946,
      "lak": 4947,
      "etk": 4948,
      "ekim": 4949,
      "bor": 4950,
      "uyu": 4951,
      "güç": 4952,
      "i̇r": 4953,
      "04": 4954,
      "umu": 4955,
      "ankara": 4956,
      "gru": 4957,
      "tanı": 4958,
      "şim": 4959,
      "tif": 4960,
      "dönem": 4961,
      "bazı": 4962,
      "hep": 4963,
      "arası": 4964,
      "dav": 4965,
      "//": 4966,
      "lerle": 4967,
      "ülke": 4968,
      "blo": 4969,
      "ayet": 4970,
      "ona": 4971,
      "benim": 4972,
      "çıkar": 4973,
      "yara": 4974,
      "ifa": 4975,
      "inci": 4976,
      "tp": 4977,
      "üniver": 4978,
      "içeri": 4979,
      "gar": 4980,
      "nun": 4981,
      "cumhur": 4982,
      "güncel": 4983,
      "tım": 4984,
      "tah": 4985,
      "mut": 4986,
      "ib": 4987,
      "2014": 4988,
      "sorun": 4989,
      "bulunan": 4990,
      "kişi": 4991,
      "masını": 4992,
      "müdür": 4993,
      "yür": 4994,
      "and": 4995,
      "pazar": 4996,
      "atan": 4997,
      "sağla": 4998,
      "ker": 4999,
      ".)": 5000,
      "lacak": 5001,
      "bırak": 5002,
      "ülü": 5003,
      "bütün": 5004,
      "bugün": 5005,
      "kitap": 5006,
      "genç": 5007,
      "100": 5008,
      "sey": 5009,
      "harek": 5010,
      "ayd": 5011,
      "inden": 5012,
      "görev": 5013,
      "bayan": 5014,
      "görüş": 5015,
      "taki": 5016,
      "br": 5017,
      "lanan": 5018,
      "tam": 5019,
      "siya": 5020,
      "syon": 5021,
      "kav": 5022,
      "set": 5023,
      "zon": 5024,
      "hız": 5025,
      "kes": 5026,
      "lim": 5027,
      "tat": 5028,
      "taşı": 5029,
      "üzerine": 5030,
      "lek": 5031,
      "etik": 5032,
      "yü": 5033,
      "ayı": 5034,
      "cen": 5035,
      "yakın": 5036,
      "usunda": 5037,
      "sosyal": 5038,
      "belirt": 5039,
      "telefon": 5040,
      "ata": 5041,
      "iti": 5042,
      "hen": 5043,
      "olması": 5044,
      "bal": 5045,
      "http": 5046,
      "kut": 5047,
      "2013": 5048,
      "küç": 5049,
      "di̇": 5050,
      "kurulu": 5051,
      "nok": 5052,
      "ss": 5053,
      "op": 5054,
      "çöz": 5055,
      "dok": 5056,
      "uc": 5057,
      "işlem": 5058,
      "rü": 5059,
      "hesa": 5060,
      "def": 5061,
      "hil": 5062,
      "olsun": 5063,
      "mik": 5064,
      "ifade": 5065,
      "olduk": 5066,
      "kir": 5067,
      "fet": 5068,
      "lerinden": 5069,
      "masına": 5070,
      "müşt": 5071,
      "lin": 5072,
      "foto": 5073,
      "suz": 5074,
      "izin": 5075,
      "aşa": 5076,
      "günü": 5077,
      "araç": 5078,
      "gil": 5079,
      "geri": 5080,
      "köy": 5081,
      "kah": 5082,
      "tin": 5083,
      "parti": 5084,
      "),": 5085,
      "okul": 5086,
      "doğan": 5087,
      "ciler": 5088,
      "sebe": 5089,
      "kız": 5090,
      "bunu": 5091,
      "ân": 5092,
      "mesaj": 5093,
      "bilece": 5094,
      "madde": 5095,
      "teş": 5096,
      "tim": 5097,
      "ner": 5098,
      "manı": 5099,
      "kabul": 5100,
      "bulundu": 5101,
      "pan": 5102,
      "lıyor": 5103,
      "üzere": 5104,
      "temiz": 5105,
      "hafta": 5106,
      "lantı": 5107,
      "ırım": 5108,
      "://": 5109,
      "oluştur": 5110,
      "kre": 5111,
      ".»": 5112,
      "etmek": 5113,
      "ete": 5114,
      "yarı": 5115,
      "ındaki": 5116,
      "açıkla": 5117,
      "mızı": 5118,
      "oran": 5119,
      "yardımcı": 5120,
      "kr": 5121,
      "onlar": 5122,
      "adet": 5123,
      "con": 5124,
      "başarı": 5125,
      "üzerinde": 5126,
      "larından": 5127,
      "dis": 5128,
      "ot": 5129,
      "çünkü": 5130,
      "2012": 5131,
      "....": 5132,
      "hast": 5133,
      "hava": 5134,
      "ziy": 5135,
      "hük": 5136,
      "size": 5137,
      "mobil": 5138,
      "geçir": 5139,
      "muz": 5140,
      "manın": 5141,
      "etmen": 5142,
      "katı": 5143,
      "kın": 5144,
      "küçük": 5145,
      "çeş": 5146,
      "uygula": 5147,
      "sonuç": 5148,
      "rar": 5149,
      "model": 5150,
      ").": 5151,
      "kısa": 5152,
      "book": 5153,
      "üye": 5154,
      "sinden": 5155,
      "ekon": 5156,
      "diler": 5157,
      "ası": 5158,
      "num": 5159,
      "kayı": 5160,
      "lerimiz": 5161,
      "tarihi": 5162,
      "yacak": 5163,
      "bilecek": 5164,
      "yapa": 5165,
      "40": 5166,
      "dikkat": 5167,
      "trol": 5168,
      "dum": 5169,
      "lenen": 5170,
      "ocak": 5171,
      "35": 5172,
      "dırı": 5173,
      "topl": 5174,
      "yasa": 5175,
      "vak": 5176,
      "45": 5177,
      "ilir": 5178,
      "eski": 5179,
      "adı": 5180,
      "renk": 5181,
      "üy": 5182,
      "mart": 5183,
      "üç": 5184,
      "gerçekleştir": 5185,
      "üp": 5186,
      "cer": 5187,
      "yine": 5188,
      "kolay": 5189,
      "oloji": 5190,
      "zen": 5191,
      "program": 5192,
      "nis": 5193,
      "meli": 5194,
      "gül": 5195,
      "sanat": 5196,
      "inter": 5197,
      "ediyor": 5198,
      "düğ": 5199,
      "zar": 5200,
      "one": 5201,
      "şirket": 5202,
      "yani": 5203,
      "bizim": 5204,
      "i̇k": 5205,
      "ayrıca": 5206,
      "yağ": 5207,
      "şık": 5208,
      "kültür": 5209,
      "ulus": 5210,
      "nek": 5211,
      "unuz": 5212,
      "ğraf": 5213,
      "detay": 5214,
      "millet": 5215,
      "nda": 5216,
      "rah": 5217,
      "vardır": 5218,
      "\",\"": 5219,
      "etme": 5220,
      "burada": 5221,
      "alım": 5222,
      "maç": 5223,
      "36": 5224,
      "kaynak": 5225,
      "tiya": 5226,
      "âyet": 5227,
      "esc": 5228,
      "31": 5229,
      "yum": 5230,
      "vatan": 5231,
      "pey": 5232,
      "şar": 5233,
      "koy": 5234,
      "avru": 5235,
      "cil": 5236,
      "liğin": 5237,
      "dak": 5238,
      "ex": 5239,
      "teşek": 5240,
      "ucu": 5241,
      "çar": 5242,
      "başvur": 5243,
      "müz": 5244,
      "ümüz": 5245,
      "ık": 5246,
      "lenme": 5247,
      "eğer": 5248,
      "ğe": 5249,
      "araştır": 5250,
      "escort": 5251,
      "sitel": 5252,
      "dal": 5253,
      "sava": 5254,
      "ziyaret": 5255,
      "2020": 5256,
      "kesin": 5257,
      "buyur": 5258,
      "tamam": 5259,
      "nde": 5260,
      "kontrol": 5261,
      "cağını": 5262,
      "gür": 5263,
      "kom": 5264,
      "bana": 5265,
      "yatı": 5266,
      "fin": 5267,
      "sanay": 5268,
      "işim": 5269,
      "biliyor": 5270,
      "hir": 5271,
      "canlı": 5272,
      "ortaya": 5273,
      "artık": 5274,
      "hareket": 5275,
      "sit": 5276,
      "gece": 5277,
      "ori": 5278,
      "bize": 5279,
      "takım": 5280,
      "demir": 5281,
      "kurum": 5282,
      "larımız": 5283,
      "diğini": 5284,
      "ücretsiz": 5285,
      "up": 5286,
      "elektr": 5287,
      "mel": 5288,
      "ari": 5289,
      "diyor": 5290,
      "ayak": 5291,
      "beş": 5292,
      "vide": 5293,
      "avrupa": 5294,
      "milyon": 5295,
      "ştu": 5296,
      "fik": 5297,
      "teşekkür": 5298,
      "yaptığı": 5299,
      "uş": 5300,
      "ram": 5301,
      "uluk": 5302,
      "sunuz": 5303,
      "ullah": 5304,
      "cm": 5305,
      "dana": 5306,
      "rahat": 5307,
      "ihtiya": 5308,
      "ton": 5309,
      "sav": 5310,
      "part": 5311,
      "aile": 5312,
      "tav": 5313,
      "gam": 5314,
      "mon": 5315,
      "eme": 5316,
      "edilen": 5317,
      "line": 5318,
      "hâ": 5319,
      "yüzde": 5320,
      "bulu": 5321,
      "sından": 5322,
      "ebu": 5323,
      "madan": 5324,
      "temel": 5325,
      "th": 5326,
      "34": 5327,
      "aka": 5328,
      "landı": 5329,
      "pr": 5330,
      "ici": 5331,
      "vis": 5332,
      "üs": 5333,
      "gelir": 5334,
      "dö": 5335,
      "yapan": 5336,
      "engel": 5337,
      "adam": 5338,
      "ardından": 5339,
      "anlam": 5340,
      "konuş": 5341,
      "konusunda": 5342,
      "kün": 5343,
      "key": 5344,
      "bildir": 5345,
      "38": 5346,
      "atı": 5347,
      "olabilir": 5348,
      "visi": 5349,
      "mm": 5350,
      "tep": 5351,
      "sınız": 5352,
      "birçok": 5353,
      "dolayı": 5354,
      "ener": 5355,
      "bilin": 5356,
      "içerisinde": 5357,
      "sizin": 5358,
      "hz": 5359,
      "satış": 5360,
      "ira": 5361,
      "değerlendir": 5362,
      "sar": 5363,
      "sti": 5364,
      "ince": 5365,
      "pat": 5366,
      "yerine": 5367,
      "fotoğraf": 5368,
      "mahal": 5369,
      "prof": 5370,
      "kış": 5371,
      "eyl": 5372,
      "incel": 5373,
      "hale": 5374,
      "yılında": 5375,
      "gal": 5376,
      "mur": 5377,
      "tv": 5378,
      "laştır": 5379,
      "dek": 5380,
      "37": 5381,
      "kullanıl": 5382,
      "ğrı": 5383,
      "dair": 5384,
      "etler": 5385,
      "qu": 5386,
      "üyor": 5387,
      "dakika": 5388,
      "veren": 5389,
      "oloj": 5390,
      "ras": 5391,
      "mat": 5392,
      "çan": 5393,
      "anti": 5394,
      "cam": 5395,
      "özellikle": 5396,
      "çeşit": 5397,
      "sanız": 5398,
      "yatırım": 5399,
      "olay": 5400,
      "meden": 5401,
      "anne": 5402,
      "seri": 5403,
      "isim": 5404,
      "teknik": 5405,
      "oper": 5406,
      "**": 5407,
      "temmuz": 5408,
      "içer": 5409,
      "riv": 5410,
      "ğimiz": 5411,
      "ts": 5412,
      "enin": 5413,
      "cevap": 5414,
      "hemen": 5415,
      "39": 5416,
      "umlu": 5417,
      "hazir": 5418,
      "geçen": 5419,
      "cep": 5420,
      "etkin": 5421,
      "şimdi": 5422,
      "kıs": 5423,
      "--------": 5424,
      "ilecek": 5425,
      "unca": 5426,
      "uzak": 5427,
      "iniz": 5428,
      "lım": 5429,
      "talya": 5430,
      "meh": 5431,
      "yönetim": 5432,
      "umuz": 5433,
      "kurul": 5434,
      "hu": 5435,
      "yönet": 5436,
      "seçim": 5437,
      "osman": 5438,
      "beri": 5439,
      "hastan": 5440,
      "web": 5441,
      "mayıs": 5442,
      "aralık": 5443,
      "merkezi": 5444,
      "geldi": 5445,
      "boz": 5446,
      "elim": 5447,
      "og": 5448,
      "48": 5449,
      "yemek": 5450,
      "ceza": 5451,
      "müm": 5452,
      "ğa": 5453,
      "resim": 5454,
      "çalışma": 5455,
      "lis": 5456,
      "aya": 5457,
      "türkçe": 5458,
      "iri": 5459,
      "baba": 5460,
      "öde": 5461,
      "veril": 5462,
      "stik": 5463,
      "kasım": 5464,
      "hüküm": 5465,
      "müs": 5466,
      "dele": 5467,
      "www": 5468,
      "tük": 5469,
      "ağır": 5470,
      "hav": 5471,
      "lüğü": 5472,
      "yaşam": 5473,
      "yaklaşı": 5474,
      "terci": 5475,
      "temi": 5476,
      "nit": 5477,
      "yurt": 5478,
      ".”": 5479,
      "nisan": 5480,
      "sig": 5481,
      "kapsam": 5482,
      "nedir": 5483,
      "halk": 5484,
      "ite": 5485,
      "geliştir": 5486,
      "55": 5487,
      "99": 5488,
      "ulaş": 5489,
      "suç": 5490,
      "ley": 5491,
      "uğ": 5492,
      "44": 5493,
      "milli": 5494,
      "vek": 5495,
      "sektör": 5496,
      "takip": 5497,
      "fakat": 5498,
      "bağlı": 5499,
      "çevre": 5500,
      "değiştir": 5501,
      "don": 5502,
      "toplam": 5503,
      "fiyatları": 5504,
      "nor": 5505,
      "parça": 5506,
      "edin": 5507,
      "mağ": 5508,
      "grup": 5509,
      "haziran": 5510,
      "aşağı": 5511,
      "ortak": 5512,
      "diğiniz": 5513,
      "olup": 5514,
      "eylül": 5515,
      "altında": 5516,
      "60": 5517,
      "tale": 5518,
      "i̇lk": 5519,
      "33": 5520,
      "yaptı": 5521,
      "rivayet": 5522,
      "iyoruz": 5523,
      "dos": 5524,
      "toplum": 5525,
      "cılık": 5526,
      "sol": 5527,
      "tış": 5528,
      "gider": 5529,
      "medi": 5530,
      "muştur": 5531,
      "bilim": 5532,
      "inan": 5533,
      "kâ": 5534,
      "görül": 5535,
      "peygam": 5536,
      "açıklama": 5537,
      "bahis": 5538,
      "haberleri": 5539,
      "raki": 5540,
      "mec": 5541,
      "ders": 5542,
      "bahçe": 5543,
      "video": 5544,
      "şam": 5545,
      "dile": 5546,
      "âlâ": 5547,
      "hiçbir": 5548,
      "mümkün": 5549,
      "ebilir": 5550,
      "huk": 5551,
      "dığ": 5552,
      "sınır": 5553,
      "kapı": 5554,
      "kendil": 5555,
      "matik": 5556,
      "pen": 5557,
      "i̇zmir": 5558,
      "organ": 5559,
      "000": 5560,
      "gın": 5561,
      "rus": 5562,
      "ister": 5563,
      "sının": 5564,
      ":)": 5565,
      "değişik": 5566,
      "yu": 5567,
      "müca": 5568,
      "mesini": 5569,
      "şah": 5570,
      "çalışan": 5571,
      "dava": 5572,
      "güvenlik": 5573,
      "kullanıcı": 5574,
      "tercih": 5575,
      "90": 5576,
      "car": 5577,
      "yüksel": 5578,
      "km": 5579,
      "2011": 5580,
      "aydın": 5581,
      "büyü": 5582,
      "teâlâ": 5583,
      "ğiniz": 5584,
      "hedef": 5585,
      "ünün": 5586,
      "hotel": 5587,
      "biraz": 5588,
      "kayıt": 5589,
      "rol": 5590,
      "yapmak": 5591,
      "üniversitesi": 5592,
      "\":\"": 5593,
      "fut": 5594,
      "beyaz": 5595,
      "hızlı": 5596,
      "erdoğan": 5597,
      "haberler": 5598,
      "görüntü": 5599,
      "anda": 5600,
      "pre": 5601,
      "karde": 5602,
      "hayır": 5603,
      "enek": 5604,
      "muh": 5605,
      "otur": 5606,
      "erini": 5607,
      "32": 5608,
      "bağı": 5609,
      "kamp": 5610,
      "kate": 5611,
      "neler": 5612,
      "giz": 5613,
      "gereken": 5614,
      "tekrar": 5615,
      "i̇ngil": 5616,
      "likle": 5617,
      "mail": 5618,
      "47": 5619,
      "şubat": 5620,
      "ull": 5621,
      "zat": 5622,
      "dini": 5623,
      "mehmet": 5624,
      "ait": 5625,
      "çif": 5626,
      "isyon": 5627,
      "kurt": 5628,
      "sınıf": 5629,
      "i̇t": 5630,
      "örgü": 5631,
      "hari": 5632,
      "ıyor": 5633,
      "alış": 5634,
      "çin": 5635,
      "pak": 5636,
      "vet": 5637,
      "fat": 5638,
      "tabi": 5639,
      "koca": 5640,
      "mahalle": 5641,
      "kent": 5642,
      "80": 5643,
      "forum": 5644,
      "boyut": 5645,
      "giy": 5646,
      "nokta": 5647,
      "____": 5648,
      "beni": 5649,
      "yeter": 5650,
      "yazar": 5651,
      "üret": 5652,
      "lari": 5653,
      "meyi": 5654,
      "meyen": 5655,
      "herhangi": 5656,
      "ağu": 5657,
      "bebek": 5658,
      "kamer": 5659,
      "by": 5660,
      "üzerinden": 5661,
      "ec": 5662,
      "zem": 5663,
      "i̇nsan": 5664,
      "konusu": 5665,
      "karı": 5666,
      "çözüm": 5667,
      "lat": 5668,
      "lış": 5669,
      "senin": 5670,
      "kıl": 5671,
      "internet": 5672,
      "bursa": 5673,
      "bakım": 5674,
      "söy": 5675,
      "teda": 5676,
      "mıza": 5677,
      "ülk": 5678,
      "layan": 5679,
      "değildir": 5680,
      "yay": 5681,
      "saç": 5682,
      "kötü": 5683,
      "zamanda": 5684,
      "yım": 5685,
      "ilet": 5686,
      "ilçe": 5687,
      "yürü": 5688,
      "meler": 5689,
      "gök": 5690,
      "işi": 5691,
      "rip": 5692,
      "sayar": 5693,
      "ii": 5694,
      "geniş": 5695,
      "hayvan": 5696,
      "nedeniyle": 5697,
      "46": 5698,
      "lilik": 5699,
      "dağ": 5700,
      "ekip": 5701,
      "yaşan": 5702,
      "fran": 5703,
      "aray": 5704,
      "duğu": 5705,
      "duğ": 5706,
      "kamu": 5707,
      "face": 5708,
      ".\"": 5709,
      "ilmesi": 5710,
      "mutl": 5711,
      "ladı": 5712,
      "sah": 5713,
      "uygulama": 5714,
      "stos": 5715,
      "katıl": 5716,
      "ilan": 5717,
      "lig": 5718,
      "buna": 5719,
      "oyna": 5720,
      "gez": 5721,
      "başladı": 5722,
      "erinde": 5723,
      "unut": 5724,
      "derece": 5725,
      "faal": 5726,
      "çiz": 5727,
      "öğretmen": 5728,
      "diş": 5729,
      "sıcak": 5730,
      "alman": 5731,
      "birbir": 5732,
      "yesinde": 5733,
      "uyor": 5734,
      "bera": 5735,
      "acı": 5736,
      "toplantı": 5737,
      "çalışmalar": 5738,
      "sık": 5739,
      "vatandaş": 5740,
      "undan": 5741,
      "alet": 5742,
      "kredi": 5743,
      "elde": 5744,
      "futbol": 5745,
      "2010": 5746,
      "bon": 5747,
      "ris": 5748,
      "diz": 5749,
      "sıyla": 5750,
      "antalya": 5751,
      "ic": 5752,
      "ölç": 5753,
      "yıldı": 5754,
      "uyla": 5755,
      "ent": 5756,
      "sem": 5757,
      "olmayan": 5758,
      "wit": 5759,
      "mişti": 5760,
      "vil": 5761,
      "uzman": 5762,
      "ğen": 5763,
      "2009": 5764,
      "lardır": 5765,
      "ıs": 5766,
      "person": 5767,
      "oldukça": 5768,
      "kaldır": 5769,
      "detaylı": 5770,
      "dağı": 5771,
      "yeniden": 5772,
      "işle": 5773,
      "yoğ": 5774,
      "sunu": 5775,
      "hd": 5776,
      "yanıt": 5777,
      "49": 5778,
      "sok": 5779,
      "ekran": 5780,
      "57": 5781,
      "mücadele": 5782,
      "terör": 5783,
      "rapor": 5784,
      "takı": 5785,
      "ted": 5786,
      "yada": 5787,
      "oluyor": 5788,
      "str": 5789,
      "tepe": 5790,
      "öncek": 5791,
      "ticaret": 5792,
      "beraber": 5793,
      "ina": 5794,
      "onların": 5795,
      "almak": 5796,
      "servisi": 5797,
      "sarı": 5798,
      "gol": 5799,
      "söyledi": 5800,
      "miyor": 5801,
      "emek": 5802,
      "dam": 5803,
      "izm": 5804,
      "dow": 5805,
      "56": 5806,
      "savaş": 5807,
      "58": 5808,
      "kuru": 5809,
      "peygamber": 5810,
      "çift": 5811,
      "mıyor": 5812,
      "sıra": 5813,
      "paylaş": 5814,
      "gerekir": 5815,
      "aday": 5816,
      "örnek": 5817,
      "masının": 5818,
      "şart": 5819,
      "ağustos": 5820,
      "ekli": 5821,
      "sistemi": 5822,
      "tasarım": 5823,
      "cut": 5824,
      "oyuncu": 5825,
      "altın": 5826,
      "rab": 5827,
      "i̇şte": 5828,
      "stra": 5829,
      "https": 5830,
      "ört": 5831,
      "çıktı": 5832,
      "ddi": 5833,
      "etki": 5834,
      "bilgisayar": 5835,
      "yaban": 5836,
      "miz": 5837,
      "samsun": 5838,
      "deli": 5839,
      "test": 5840,
      "veri": 5841,
      "puan": 5842,
      "belediyesi": 5843,
      "uluslar": 5844,
      "amaç": 5845,
      "kapa": 5846,
      "rağ": 5847,
      "verdi": 5848,
      "manız": 5849,
      "doğu": 5850,
      "doğal": 5851,
      "itibar": 5852,
      "okun": 5853,
      "ğim": 5854,
      "dol": 5855,
      "''": 5856,
      "mesine": 5857,
      "duk": 5858,
      "uçak": 5859,
      "form": 5860,
      "may": 5861,
      "bes": 5862,
      "onları": 5863,
      "çağ": 5864,
      "yolu": 5865,
      "faaliyet": 5866,
      ");": 5867,
      "ia": 5868,
      "ilere": 5869,
      "sul": 5870,
      "ünden": 5871,
      "teh": 5872,
      "ekonom": 5873,
      "yanın": 5874,
      "not": 5875,
      "gre": 5876,
      "facebook": 5877,
      "ikinci": 5878,
      "rı": 5879,
      "59": 5880,
      "beğen": 5881,
      "ettiği": 5882,
      "öldür": 5883,
      "gazi": 5884,
      "hizmetleri": 5885,
      "day": 5886,
      "iddi": 5887,
      "mayan": 5888,
      "boş": 5889,
      "altı": 5890,
      "fo": 5891,
      "chat": 5892,
      "lerdir": 5893,
      "ft": 5894,
      "online": 5895,
      "gur": 5896,
      "taj": 5897,
      "lüt": 5898,
      "malıdır": 5899,
      "gerekli": 5900,
      "çiç": 5901,
      "önceki": 5902,
      "kimse": 5903,
      "evet": 5904,
      "yönelik": 5905,
      "servis": 5906,
      "labilir": 5907,
      "pas": 5908,
      "ale": 5909,
      "gelecek": 5910,
      "mevcut": 5911,
      "\",": 5912,
      "lana": 5913,
      "yaklaşık": 5914,
      "sahibi": 5915,
      "satın": 5916,
      "linde": 5917,
      "çıkan": 5918,
      "ple": 5919,
      "kılı": 5920,
      "sh": 5921,
      "zarar": 5922,
      "tiği": 5923,
      "gala": 5924,
      "musta": 5925,
      "fon": 5926,
      "makine": 5927,
      "etiketler": 5928,
      "meleri": 5929,
      "sınav": 5930,
      "ti̇": 5931,
      "dönüş": 5932,
      "hadi": 5933,
      "zu": 5934,
      "kaya": 5935,
      "yerek": 5936,
      "yaln": 5937,
      "yarar": 5938,
      "gazete": 5939,
      "sanayi": 5940,
      "demek": 5941,
      "jan": 5942,
      "dahil": 5943,
      "sındaki": 5944,
      "deney": 5945,
      "soy": 5946,
      "iyeti": 5947,
      "seniz": 5948,
      "dışında": 5949,
      "adre": 5950,
      "siye": 5951,
      "cağız": 5952,
      "landır": 5953,
      "laşa": 5954,
      "ly": 5955,
      "chp": 5956,
      "kaz": 5957,
      "sir": 5958,
      "yetiş": 5959,
      "menin": 5960,
      "doktor": 5961,
      "amacı": 5962,
      "bilmek": 5963,
      "sc": 5964,
      "karak": 5965,
      "kas": 5966,
      "larıyla": 5967,
      "win": 5968,
      "alma": 5969,
      "ayan": 5970,
      "199": 5971,
      "bilen": 5972,
      "arkada": 5973,
      "yarak": 5974,
      "müş": 5975,
      "anad": 5976,
      "ahmet": 5977,
      "yeş": 5978,
      "alama": 5979,
      "sans": 5980,
      "70": 5981,
      "tarihinde": 5982,
      "uma": 5983,
      "i̇yi": 5984,
      "aldı": 5985,
      "diğimiz": 5986,
      "tip": 5987,
      "ilişkin": 5988,
      "hukuk": 5989,
      "öner": 5990,
      "bri": 5991,
      "isteyen": 5992,
      "ekle": 5993,
      "zey": 5994,
      "pet": 5995,
      "kalite": 5996,
      "üretim": 5997,
      "basın": 5998,
      "benzer": 5999,
      "günlük": 6000,
      "geçmiş": 6001,
      "enerji": 6002,
      "elektrik": 6003,
      "ırken": 6004,
      "omi": 6005,
      "sana": 6006,
      "mustafa": 6007,
      "anadolu": 6008,
      "normal": 6009,
      "motor": 6010,
      "mıştı": 6011,
      "mini": 6012,
      "akıl": 6013,
      "işe": 6014,
      "yalnız": 6015,
      "anal": 6016,
      "fu": 6017,
      "dizi": 6018,
      "deri": 6019,
      "yıldız": 6020,
      "işlet": 6021,
      "güm": 6022,
      "are": 6023,
      "lamak": 6024,
      "hoş": 6025,
      "park": 6026,
      "ölüm": 6027,
      "yöntem": 6028,
      "medya": 6029,
      "adım": 6030,
      "ğun": 6031,
      "yapar": 6032,
      "ene": 6033,
      "birliği": 6034,
      "proje": 6035,
      "saldırı": 6036,
      "olsa": 6037,
      "hesap": 6038,
      "çeşitli": 6039,
      "hid": 6040,
      "kalar": 6041,
      "zaten": 6042,
      "marka": 6043,
      "lendi": 6044,
      "altına": 6045,
      "gs": 6046,
      "ml": 6047,
      "kıya": 6048,
      "i̇h": 6049,
      "dük": 6050,
      "uluslararası": 6051,
      "belli": 6052,
      "dost": 6053,
      "mahke": 6054,
      "yuk": 6055,
      "kale": 6056,
      "çocu": 6057,
      "şüp": 6058,
      "ğine": 6059,
      "ment": 6060,
      "imizin": 6061,
      "polis": 6062,
      "hatır": 6063,
      "hü": 6064,
      "bunlar": 6065,
      "sas": 6066,
      "başı": 6067,
      "tab": 6068,
      "wor": 6069,
      "mutlu": 6070,
      "başvuru": 6071,
      "teknoloji": 6072,
      "leriyle": 6073,
      "mam": 6074,
      "aa": 6075,
      "78": 6076,
      "has": 6077,
      "trab": 6078,
      "tekli": 6079,
      "koş": 6080,
      "asında": 6081,
      "asl": 6082,
      "yoğun": 6083,
      "sistemleri": 6084,
      "okra": 6085,
      "temsil": 6086,
      "sayısı": 6087,
      "geliyor": 6088,
      "ucuz": 6089,
      "ilmiş": 6090,
      "oyn": 6091,
      "54": 6092,
      "onlara": 6093,
      "güneş": 6094,
      "hp": 6095,
      "sene": 6096,
      "rağmen": 6097,
      "gili": 6098,
      "oz": 6099,
      "cisi": 6100,
      "aldığı": 6101,
      "evi": 6102,
      "2008": 6103,
      "muha": 6104,
      "trans": 6105,
      "yoktur": 6106,
      "post": 6107,
      "kullanım": 6108,
      "yeri": 6109,
      "niyet": 6110,
      "yabancı": 6111,
      "edecek": 6112,
      "fayd": 6113,
      "kateg": 6114,
      "lt": 6115,
      "eur": 6116,
      "kalit": 6117,
      "paşa": 6118,
      "leri̇": 6119,
      "dolar": 6120,
      "zım": 6121,
      "masa": 6122,
      "halinde": 6123,
      "sözleş": 6124,
      "açıl": 6125,
      "leyen": 6126,
      "şeklinde": 6127,
      "dy": 6128,
      "vaz": 6129,
      "yapılacak": 6130,
      "geçti": 6131,
      "sıfır": 6132,
      "cihaz": 6133,
      "öğretim": 6134,
      "diğim": 6135,
      "yız": 6136,
      "rest": 6137,
      "trabzon": 6138,
      "öd": 6139,
      "operasyon": 6140,
      "mızda": 6141,
      "aşk": 6142,
      "çay": 6143,
      "hap": 6144,
      "fı": 6145,
      "dayan": 6146,
      "atatürk": 6147,
      "üler": 6148,
      "sonraki": 6149,
      "42": 6150,
      "nu": 6151,
      "ayar": 6152,
      "ds": 6153,
      "seya": 6154,
      "bilet": 6155,
      "yanında": 6156,
      "cilerin": 6157,
      "sürdür": 6158,
      "yıldır": 6159,
      "anlat": 6160,
      "biy": 6161,
      "kapsamında": 6162,
      "vel": 6163,
      "aracı": 6164,
      "dikleri": 6165,
      "olmaz": 6166,
      "çer": 6167,
      "43": 6168,
      "sap": 6169,
      "düşük": 6170,
      "kanal": 6171,
      "ırı": 6172,
      "barı": 6173,
      "tül": 6174,
      "istiyor": 6175,
      "cinsel": 6176,
      "günde": 6177,
      "bilgiler": 6178,
      "ig": 6179,
      "mük": 6180,
      "sesli": 6181,
      "ğiz": 6182,
      "meslek": 6183,
      "lanması": 6184,
      "davran": 6185,
      "hane": 6186,
      "müdürlüğü": 6187,
      "75": 6188,
      "ihtiyaç": 6189,
      "durumda": 6190,
      "yarış": 6191,
      "olun": 6192,
      "tec": 6193,
      "masında": 6194,
      "kilo": 6195,
      "kampan": 6196,
      "viz": 6197,
      "aların": 6198,
      "verilen": 6199,
      "arama": 6200,
      "hastalık": 6201,
      "kalı": 6202,
      "firma": 6203,
      "tef": 6204,
      "liye": 6205,
      "ruh": 6206,
      "sayesinde": 6207,
      "konuda": 6208,
      "ila": 6209,
      "şamp": 6210,
      "personel": 6211,
      "muham": 6212,
      "kaliteli": 6213,
      "new": 6214,
      "41": 6215,
      "siyle": 6216,
      "tok": 6217,
      "celik": 6218,
      "ortam": 6219,
      "dört": 6220,
      "dıkları": 6221,
      "durumu": 6222,
      "lemek": 6223,
      "talep": 6224,
      "uğra": 6225,
      "benz": 6226,
      "sho": 6227,
      "bâ": 6228,
      "sizi": 6229,
      "çiçek": 6230,
      "cumhuriyet": 6231,
      "görü": 6232,
      "hatta": 6233,
      "tedavi": 6234,
      "türlü": 6235,
      "ederek": 6236,
      "belge": 6237,
      "lığını": 6238,
      "seviye": 6239,
      "sezon": 6240,
      "mür": 6241,
      "imli": 6242,
      "şen": 6243,
      "yata": 6244,
      "konuştu": 6245,
      "müslü": 6246,
      "cılar": 6247,
      "vir": 6248,
      "kli": 6249,
      "çalışı": 6250,
      ".,": 6251,
      "tesp": 6252,
      "seyahat": 6253,
      "paket": 6254,
      "kiler": 6255,
      "danış": 6256,
      "sonrası": 6257,
      "hel": 6258,
      "seçenek": 6259,
      "araştırma": 6260,
      "geçer": 6261,
      "66": 6262,
      "çak": 6263,
      "aslında": 6264,
      "oluş": 6265,
      "çevir": 6266,
      "silah": 6267,
      "kalan": 6268,
      "cik": 6269,
      "soğ": 6270,
      "keli": 6271,
      "kişinin": 6272,
      "güncelleme": 6273,
      "mis": 6274,
      "teki": 6275,
      "bakı": 6276,
      "yip": 6277,
      "kart": 6278,
      "boyunca": 6279,
      "gerçekten": 6280,
      "kısı": 6281,
      "kla": 6282,
      "nur": 6283,
      "nef": 6284,
      "best": 6285,
      "bundan": 6286,
      "fener": 6287,
      "ee": 6288,
      "göl": 6289,
      "derin": 6290,
      "sipar": 6291,
      "kaybet": 6292,
      "yeşil": 6293,
      "savun": 6294,
      "naz": 6295,
      "52": 6296,
      "yse": 6297,
      "anın": 6298,
      "âm": 6299,
      "laşım": 6300,
      "lanma": 6301,
      "kardeş": 6302,
      "tasar": 6303,
      "53": 6304,
      "banka": 6305,
      "cuma": 6306,
      "tren": 6307,
      "başlayan": 6308,
      "bakanı": 6309,
      "lütfen": 6310,
      "yılı": 6311,
      "ez": 6312,
      "beden": 6313,
      "iliği": 6314,
      "mesel": 6315,
      "larınız": 6316,
      "jo": 6317,
      "resmi": 6318,
      "perfor": 6319,
      "ja": 6320,
      "ore": 6321,
      "kk": 6322,
      "imize": 6323,
      "piyasa": 6324,
      "olacaktır": 6325,
      "hol": 6326,
      "içi": 6327,
      "yasal": 6328,
      "pop": 6329,
      "eki": 6330,
      "verir": 6331,
      "sürekli": 6332,
      "bl": 6333,
      "keş": 6334,
      "moda": 6335,
      "tası": 6336,
      "fal": 6337,
      "jin": 6338,
      "ps": 6339,
      "çağrı": 6340,
      "elerini": 6341,
      "alarda": 6342,
      "gerekiyor": 6343,
      "etkinlik": 6344,
      "müslüman": 6345,
      "bi̇": 6346,
      "gisi": 6347,
      "i̇ngiliz": 6348,
      "performan": 6349,
      "kuş": 6350,
      "veriş": 6351,
      "500": 6352,
      "müzik": 6353,
      "sabah": 6354,
      "alanı": 6355,
      "ani": 6356,
      "gram": 6357,
      "büyükşehir": 6358,
      "ünlü": 6359,
      "yerde": 6360,
      "halde": 6361,
      "port": 6362,
      "edildi": 6363,
      "yaptır": 6364,
      "etmiş": 6365,
      "51": 6366,
      "demokra": 6367,
      "sert": 6368,
      "kanı": 6369,
      "reklam": 6370,
      "kuruluş": 6371,
      "liyor": 6372,
      "biç": 6373,
      "yayınları": 6374,
      "sever": 6375,
      "est": 6376,
      "kuz": 6377,
      "artır": 6378,
      "ant": 6379,
      "malzem": 6380,
      "araya": 6381,
      "dığınız": 6382,
      "ınca": 6383,
      "nü": 6384,
      "luğu": 6385,
      "meydana": 6386,
      "beklen": 6387,
      "ıntı": 6388,
      "hayal": 6389,
      "gazet": 6390,
      "insanlar": 6391,
      "erken": 6392,
      "emin": 6393,
      "lanmış": 6394,
      "bakanlığı": 6395,
      "yası": 6396,
      "inç": 6397,
      "güçlü": 6398,
      "yukarı": 6399,
      "ide": 6400,
      "asker": 6401,
      "imde": 6402,
      "siyah": 6403,
      "leye": 6404,
      "cumhurbaşkanı": 6405,
      "che": 6406,
      "���": 6407,
      "dünyanın": 6408,
      "kili": 6409,
      "varsa": 6410,
      "ayakka": 6411,
      "goog": 6412,
      "cilik": 6413,
      "anlar": 6414,
      "müşteri": 6415,
      "büs": 6416,
      "elerde": 6417,
      "örne": 6418,
      "başarılı": 6419,
      "indeki": 6420,
      "rahim": 6421,
      "çelik": 6422,
      "siteleri": 6423,
      "!!": 6424,
      "ndan": 6425,
      "belki": 6426,
      "diy": 6427,
      "süper": 6428,
      "i̇çin": 6429,
      "ity": 6430,
      "sk": 6431,
      "ğın": 6432,
      "zir": 6433,
      "cat": 6434,
      "poz": 6435,
      "adına": 6436,
      "bağlantı": 6437,
      "hediye": 6438,
      "ödeme": 6439,
      "defa": 6440,
      "ümü": 6441,
      "endi": 6442,
      "müşter": 6443,
      "sokak": 6444,
      "pil": 6445,
      "teslim": 6446,
      "au": 6447,
      "68": 6448,
      "yaptık": 6449,
      "yöneti": 6450,
      "milletvek": 6451,
      "bakır": 6452,
      "mızın": 6453,
      "google": 6454,
      "etkile": 6455,
      "yapma": 6456,
      "ital": 6457,
      "batı": 6458,
      "kızı": 6459,
      "pho": 6460,
      "konya": 6461,
      "ty": 6462,
      "toprak": 6463,
      "adan": 6464,
      "sayılı": 6465,
      "dekor": 6466,
      "olojik": 6467,
      "nerede": 6468,
      "ova": 6469,
      "dışı": 6470,
      "fla": 6471,
      "direk": 6472,
      "blog": 6473,
      "malze": 6474,
      "tatil": 6475,
      "stand": 6476,
      "hadis": 6477,
      "alınan": 6478,
      "şaat": 6479,
      "vali": 6480,
      "ekonomik": 6481,
      "lanır": 6482,
      "tarı": 6483,
      "kuv": 6484,
      "böylece": 6485,
      "pra": 6486,
      "cal": 6487,
      "yargı": 6488,
      "düzey": 6489,
      "profes": 6490,
      "cad": 6491,
      "tavsiye": 6492,
      "yorlar": 6493,
      "cevapla": 6494,
      "alanlar": 6495,
      "i̇lçe": 6496,
      "bizi": 6497,
      "yarat": 6498,
      "tıp": 6499,
      "reh": 6500,
      "hır": 6501,
      "ati": 6502,
      "ciddi": 6503,
      "ekonomi": 6504,
      "kanun": 6505,
      "çu": 6506,
      "aklı": 6507,
      "yanlış": 6508,
      "ömer": 6509,
      "okulu": 6510,
      "kum": 6511,
      "muhammed": 6512,
      "kadınlar": 6513,
      "77": 6514,
      "hizmeti": 6515,
      "halı": 6516,
      "embe": 6517,
      "adlı": 6518,
      "bilgileri": 6519,
      "i̇lan": 6520,
      "yıllık": 6521,
      "şer": 6522,
      "birkaç": 6523,
      "boya": 6524,
      "onik": 6525,
      "ürünleri": 6526,
      "room": 6527,
      "nedenle": 6528,
      "tarım": 6529,
      "şır": 6530,
      "hakkı": 6531,
      "gerçekleş": 6532,
      "özgür": 6533,
      "öğrenciler": 6534,
      "vardı": 6535,
      "kırmızı": 6536,
      "sonunda": 6537,
      "şampiy": 6538,
      "\\/": 6539,
      "prob": 6540,
      "rim": 6541,
      "şube": 6542,
      "alarında": 6543,
      "ordu": 6544,
      "kullanılan": 6545,
      "kayet": 6546,
      "metre": 6547,
      "tamamen": 6548,
      "kemal": 6549,
      "kendisine": 6550,
      "yerel": 6551,
      "herkes": 6552,
      "sonucu": 6553,
      "yoksa": 6554,
      "kural": 6555,
      "tun": 6556,
      "elere": 6557,
      "ağrı": 6558,
      "tiğini": 6559,
      "erinin": 6560,
      "uml": 6561,
      "ct": 6562,
      "şehit": 6563,
      "sesi": 6564,
      "duyur": 6565,
      "meniz": 6566,
      "hür": 6567,
      "digit": 6568,
      "şarkı": 6569,
      "birey": 6570,
      "mada": 6571,
      "larım": 6572,
      "seni": 6573,
      "ms": 6574,
      "avu": 6575,
      "eğlen": 6576,
      "beşik": 6577,
      "yazılı": 6578,
      "sindeki": 6579,
      "rusya": 6580,
      "hasta": 6581,
      "şeyi": 6582,
      "saha": 6583,
      "sy": 6584,
      "kaza": 6585,
      "duvar": 6586,
      "şid": 6587,
      "istiyorum": 6588,
      "link": 6589,
      "programı": 6590,
      "fiyatı": 6591,
      "özellikleri": 6592,
      "edilir": 6593,
      "anasayfa": 6594,
      "ğlu": 6595,
      "müdürü": 6596,
      "ayrıl": 6597,
      "88": 6598,
      "kendini": 6599,
      "derne": 6600,
      "plat": 6601,
      "ederim": 6602,
      "{\"": 6603,
      "ücü": 6604,
      "suriye": 6605,
      "inizi": 6606,
      "anlaş": 6607,
      "ima": 6608,
      "mekan": 6609,
      "sipariş": 6610,
      "mit": 6611,
      "ortal": 6612,
      "huz": 6613,
      "sırasında": 6614,
      "sebep": 6615,
      "toptan": 6616,
      "stil": 6617,
      "bayram": 6618,
      "bulunduğu": 6619,
      "edile": 6620,
      "akşam": 6621,
      "ew": 6622,
      "laya": 6623,
      "ateş": 6624,
      "ayakkabı": 6625,
      "parç": 6626,
      "liste": 6627,
      "lüğ": 6628,
      "sün": 6629,
      "eksik": 6630,
      "gay": 6631,
      "tez": 6632,
      "birinci": 6633,
      "öncelik": 6634,
      "merha": 6635,
      "şiir": 6636,
      "namaz": 6637,
      "olmuş": 6638,
      "tespit": 6639,
      "arasındaki": 6640,
      "odası": 6641,
      "miktar": 6642,
      "güney": 6643,
      "çıkarı": 6644,
      "itik": 6645,
      "indi": 6646,
      "lerce": 6647,
      "yere": 6648,
      "çıkı": 6649,
      "gri": 6650,
      "cla": 6651,
      "aca": 6652,
      "cro": 6653,
      "gündem": 6654,
      "düğü": 6655,
      "fan": 6656,
      "full": 6657,
      "zz": 6658,
      "bula": 6659,
      "eb": 6660,
      "madı": 6661,
      "yun": 6662,
      "ürünler": 6663,
      "işleri": 6664,
      "mayın": 6665,
      "esna": 6666,
      "ayda": 6667,
      "konut": 6668,
      "kork": 6669,
      "ltd": 6670,
      "69": 6671,
      "mesaf": 6672,
      "zin": 6673,
      "eye": 6674,
      "eser": 6675,
      "lenmesi": 6676,
      "col": 6677,
      "vol": 6678,
      "hasan": 6679,
      "i̇le": 6680,
      "çalışmaları": 6681,
      "ib_": 6682,
      "dine": 6683,
      "rin": 6684,
      "arada": 6685,
      "kodu": 6686,
      "sıkın": 6687,
      "ödül": 6688,
      "kesi": 6689,
      "lıkla": 6690,
      "mühen": 6691,
      "mahallesi": 6692,
      "twit": 6693,
      "photo": 6694,
      "pri": 6695,
      "arap": 6696,
      "başına": 6697,
      "açısından": 6698,
      "yağı": 6699,
      "urk": 6700,
      "xt": 6701,
      "indirim": 6702,
      "süreç": 6703,
      "ction": 6704,
      "araba": 6705,
      "abdullah": 6706,
      "67": 6707,
      "kendin": 6708,
      "ilaç": 6709,
      "beşiktaş": 6710,
      "tere": 6711,
      "bla": 6712,
      "adana": 6713,
      "rasül": 6714,
      "turk": 6715,
      "mara": 6716,
      "vermek": 6717,
      "imizi": 6718,
      "alışveriş": 6719,
      "yalan": 6720,
      "şikayet": 6721,
      "bre": 6722,
      "tarif": 6723,
      "ettik": 6724,
      "galatas": 6725,
      "memnun": 6726,
      "verdiği": 6727,
      "doğum": 6728,
      "tre": 6729,
      "kararı": 6730,
      "şeyler": 6731,
      "otomatik": 6732,
      "mim": 6733,
      "üstü": 6734,
      "alacak": 6735,
      "numar": 6736,
      "karşılaş": 6737,
      "65": 6738,
      "turizm": 6739,
      "zorunda": 6740,
      "fel": 6741,
      "olmaya": 6742,
      "ilerini": 6743,
      "arkadaşlık": 6744,
      "onay": 6745,
      "günümüz": 6746,
      "galatasaray": 6747,
      "ask": 6748,
      "düzenlenen": 6749,
      "cileri": 6750,
      "koşul": 6751,
      "ağı": 6752,
      "bağım": 6753,
      "elerinin": 6754,
      "ğinde": 6755,
      "katkı": 6756,
      "katılım": 6757,
      "üniversite": 6758,
      "yüzden": 6759,
      "ınızı": 6760,
      "sizlere": 6761,
      "fre": 6762,
      "düğün": 6763,
      "tanım": 6764,
      "kahra": 6765,
      "şım": 6766,
      "yapılır": 6767,
      "mâ": 6768,
      "window": 6769,
      "vasyon": 6770,
      "başlan": 6771,
      "üreti": 6772,
      "tablo": 6773,
      "huzur": 6774,
      "malat": 6775,
      "ph": 6776,
      "rr": 6777,
      "kişiler": 6778,
      "alır": 6779,
      "restoran": 6780,
      "twitter": 6781,
      "hey": 6782,
      "hüc": 6783,
      "gi̇": 6784,
      "merak": 6785,
      "bulunmaktadır": 6786,
      "teklif": 6787,
      "deste": 6788,
      "abilir": 6789,
      "i̇slam": 6790,
      "mac": 6791,
      "balık": 6792,
      "hisse": 6793,
      "anah": 6794,
      "list": 6795,
      "sağlıklı": 6796,
      "eği": 6797,
      "fra": 6798,
      "itibaren": 6799,
      "kağı": 6800,
      "sıkıntı": 6801,
      "götür": 6802,
      "bür": 6803,
      "dat": 6804,
      "kit": 6805,
      "ameri": 6806,
      "yana": 6807,
      "bi̇r": 6808,
      "çıka": 6809,
      "diğinde": 6810,
      "kayna": 6811,
      "ilgi": 6812,
      "mayacak": 6813,
      "alıyor": 6814,
      "baskı": 6815,
      "sef": 6816,
      "kop": 6817,
      "span": 6818,
      "odaları": 6819,
      "diren": 6820,
      "ğunu": 6821,
      "ade": 6822,
      "i̇nter": 6823,
      "çocuklar": 6824,
      "almanya": 6825,
      "siklet": 6826,
      "isten": 6827,
      "modelleri": 6828,
      "moder": 6829,
      "konum": 6830,
      "istanbul": 6831,
      "kargo": 6832,
      "name": 6833,
      "eksiyon": 6834,
      "sızlık": 6835,
      "kadro": 6836,
      "iletişim": 6837,
      "fiz": 6838,
      "pazartesi": 6839,
      "nik": 6840,
      "yalar": 6841,
      "itir": 6842,
      "dip": 6843,
      "hala": 6844,
      "başkanlığı": 6845,
      "mutlaka": 6846,
      "int": 6847,
      "bunların": 6848,
      "liğini": 6849,
      "milyar": 6850,
      "standart": 6851,
      "kuvvet": 6852,
      "taşıma": 6853,
      "euro": 6854,
      "tutuk": 6855,
      "etkili": 6856,
      "orada": 6857,
      "tuk": 6858,
      "mükem": 6859,
      "yim": 6860,
      "eyi": 6861,
      "atör": 6862,
      "meyecek": 6863,
      "ks": 6864,
      "roman": 6865,
      "insanların": 6866,
      "değişiklik": 6867,
      "lığa": 6868,
      "lira": 6869,
      "i̇let": 6870,
      "fırsat": 6871,
      "yeterli": 6872,
      "pres": 6873,
      "birisi": 6874,
      "birleş": 6875,
      "haline": 6876,
      "kategori": 6877,
      "âh": 6878,
      "my": 6879,
      "dıktan": 6880,
      "eve": 6881,
      "nan": 6882,
      "i̇st": 6883,
      "li̇k": 6884,
      "tığını": 6885,
      "makin": 6886,
      "otomobil": 6887,
      "yaşayan": 6888,
      "kod": 6889,
      "başbakan": 6890,
      "ulaşa": 6891,
      "gelece": 6892,
      "mükemmel": 6893,
      "fikir": 6894,
      "taban": 6895,
      "mesinin": 6896,
      "çor": 6897,
      "teknoloj": 6898,
      "bahar": 6899,
      "ediyorum": 6900,
      "adres": 6901,
      "ci̇": 6902,
      "şun": 6903,
      "nem": 6904,
      "ilmiştir": 6905,
      "mor": 6906,
      "tıcı": 6907,
      "kalp": 6908,
      "âde": 6909,
      "çal": 6910,
      "2007": 6911,
      "yas": 6912,
      "uyarı": 6913,
      "mağaz": 6914,
      "kısm": 6915,
      "yel": 6916,
      "lisans": 6917,
      "cağım": 6918,
      "fenerbahçe": 6919,
      "zengin": 6920,
      "osmanlı": 6921,
      "79": 6922,
      "etin": 6923,
      "ult": 6924,
      "ceği": 6925,
      "yici": 6926,
      "dâ": 6927,
      "işte": 6928,
      "sırada": 6929,
      "zamanı": 6930,
      "ılması": 6931,
      "murat": 6932,
      "öğrenci": 6933,
      "tatlı": 6934,
      "edebi": 6935,
      "64": 6936,
      "diyet": 6937,
      "kel": 6938,
      "ces": 6939,
      "oyunu": 6940,
      "çıkış": 6941,
      "bulunu": 6942,
      "dünyada": 6943,
      "hac": 6944,
      "emniyet": 6945,
      "çarp": 6946,
      "jinal": 6947,
      "işaret": 6948,
      "evde": 6949,
      "kahraman": 6950,
      "89": 6951,
      "yonel": 6952,
      "rezer": 6953,
      "arayan": 6954,
      "ınıza": 6955,
      "tap": 6956,
      "değerli": 6957,
      "ju": 6958,
      "safir": 6959,
      "öp": 6960,
      "konak": 6961,
      "=\"": 6962,
      "ğına": 6963,
      "henüz": 6964,
      "mün": 6965,
      "kam": 6966,
      "demiş": 6967,
      "mamış": 6968,
      "lığın": 6969,
      "ışık": 6970,
      "dv": 6971,
      "yn": 6972,
      "red": 6973,
      "görmek": 6974,
      "led": 6975,
      "abilirsiniz": 6976,
      "pal": 6977,
      "veriyor": 6978,
      "şıl": 6979,
      "cem": 6980,
      "vergi": 6981,
      "rad": 6982,
      "lanıyor": 6983,
      "saygı": 6984,
      "aran": 6985,
      "fati": 6986,
      "fakül": 6987,
      "çoğu": 6988,
      "lerim": 6989,
      "bölümü": 6990,
      "ilim": 6991,
      "dra": 6992,
      "i̇nternet": 6993,
      "300": 6994,
      "dığımız": 6995,
      "zayı": 6996,
      "bileceği": 6997,
      "cir": 6998,
      "dığında": 6999,
      "sorumlu": 7000,
      "profesyonel": 7001,
      "strate": 7002,
      "posta": 7003,
      "sultan": 7004,
      "hayatı": 7005,
      "bank": 7006,
      "üyesi": 7007,
      "ry": 7008,
      "misafir": 7009,
      "melidir": 7010,
      "sonu": 7011,
      "tartış": 7012,
      "yılmaz": 7013,
      "çiler": 7014,
      "ege": 7015,
      "lenmiş": 7016,
      "ebilirsiniz": 7017,
      "dosya": 7018,
      "dığım": 7019,
      "i̇ki": 7020,
      "sonrasında": 7021,
      "antep": 7022,
      "masından": 7023,
      "cilt": 7024,
      "desi": 7025,
      "gıda": 7026,
      "haval": 7027,
      "yatak": 7028,
      "yapıyor": 7029,
      "oluşan": 7030,
      "isel": 7031,
      "balı": 7032,
      "düzenle": 7033,
      "diyar": 7034,
      "süt": 7035,
      "kesir": 7036,
      "edilmesi": 7037,
      "gümüş": 7038,
      "popüler": 7039,
      "şiddet": 7040,
      "fl": 7041,
      "eviz": 7042,
      "problem": 7043,
      "döne": 7044,
      "eh": 7045,
      "sonuc": 7046,
      "kapat": 7047,
      "lider": 7048,
      "yeme": 7049,
      "memur": 7050,
      "yolc": 7051,
      "önünde": 7052,
      "gören": 7053,
      "eleştir": 7054,
      "meş": 7055,
      "gelin": 7056,
      "ağaç": 7057,
      "fun": 7058,
      "kapalı": 7059,
      "aktif": 7060,
      "yönetimi": 7061,
      "tanın": 7062,
      "eylem": 7063,
      "başında": 7064,
      "olursa": 7065,
      "lanacak": 7066,
      "lerinizi": 7067,
      "elbi": 7068,
      "larınızı": 7069,
      "vo": 7070,
      "orman": 7071,
      "zik": 7072,
      "lıklı": 7073,
      "layın": 7074,
      "gönül": 7075,
      "ue": 7076,
      "tt": 7077,
      "izasyon": 7078,
      "cık": 7079,
      "mavi": 7080,
      "dun": 7081,
      "ortalama": 7082,
      "hus": 7083,
      "amacıyla": 7084,
      "siyasi": 7085,
      "formu": 7086,
      "girişim": 7087,
      "salı": 7088,
      "nes": 7089,
      "kitab": 7090,
      "modern": 7091,
      "tane": 7092,
      "sigorta": 7093,
      "milletvekili": 7094,
      "uzu": 7095,
      "aşağıdaki": 7096,
      "gizli": 7097,
      "zek": 7098,
      "heye": 7099,
      "76": 7100,
      "dolu": 7101,
      "çeve": 7102,
      "öğ": 7103,
      "davet": 7104,
      "traf": 7105,
      "this": 7106,
      "kafa": 7107,
      "borç": 7108,
      "çerçeve": 7109,
      "bence": 7110,
      "duygu": 7111,
      "metin": 7112,
      "yiz": 7113,
      "takımı": 7114,
      "politi": 7115,
      "yapacak": 7116,
      "soruml": 7117,
      "risk": 7118,
      "hafi": 7119,
      "null": 7120,
      "vü": 7121,
      "adalet": 7122,
      "lardı": 7123,
      "sevgili": 7124,
      "grubu": 7125,
      "cami": 7126,
      "projesi": 7127,
      "biliriz": 7128,
      "arkadaşlar": 7129,
      "aylık": 7130,
      "siyaset": 7131,
      "rasülü": 7132,
      "yansı": 7133,
      "cor": 7134,
      "tıyor": 7135,
      "çeviri": 7136,
      "boyutu": 7137,
      "takdir": 7138,
      "bazen": 7139,
      "mesafede": 7140,
      "basit": 7141,
      "vurgu": 7142,
      "yardımcısı": 7143,
      "sizlik": 7144,
      "olmadığını": 7145,
      "digiturk": 7146,
      "rasülullah": 7147,
      "firmaları": 7148,
      "üçün": 7149,
      "kürt": 7150,
      "izde": 7151,
      "view": 7152,
      "serbest": 7153,
      "elen": 7154,
      "kus": 7155,
      "tesis": 7156,
      "eğitimi": 7157,
      "kuzey": 7158,
      "yaşı": 7159,
      "ştü": 7160,
      "usta": 7161,
      "psik": 7162,
      "ilişk": 7163,
      "amerika": 7164,
      "tülü": 7165,
      "hor": 7166,
      "rabb": 7167,
      "akıllı": 7168,
      "fabri": 7169,
      "bileceğiniz": 7170,
      "lenir": 7171,
      "lazım": 7172,
      "fatih": 7173,
      "bende": 7174,
      "tb": 7175,
      "isa": 7176,
      "arttır": 7177,
      "mod": 7178,
      "elektronik": 7179,
      "i̇kin": 7180,
      "86": 7181,
      "ğında": 7182,
      "ayır": 7183,
      "kablo": 7184,
      "mutfak": 7185,
      "cd": 7186,
      "âb": 7187,
      "bayrak": 7188,
      "yasak": 7189,
      "ding": 7190,
      "kitabı": 7191,
      "derneği": 7192,
      "idi": 7193,
      "filmi": 7194,
      "bası": 7195,
      "akp": 7196,
      "avan": 7197,
      "yaşanan": 7198,
      "metal": 7199,
      "hafif": 7200,
      "süz": 7201,
      "alanında": 7202,
      "cüm": 7203,
      "malzeme": 7204,
      "asla": 7205,
      "like": 7206,
      "transfer": 7207,
      "şif": 7208,
      "evizyon": 7209,
      "hepsi": 7210,
      "evlilik": 7211,
      "diklerini": 7212,
      "yapılması": 7213,
      "sefer": 7214,
      "toplu": 7215,
      "otobüs": 7216,
      "cumar": 7217,
      "pp": 7218,
      "rail": 7219,
      "celi": 7220,
      "',": 7221,
      "süresi": 7222,
      "bilmektedir": 7223,
      "vas": 7224,
      "ulur": 7225,
      "kendilerine": 7226,
      "kulak": 7227,
      "ramaz": 7228,
      "numarası": 7229,
      "cumartesi": 7230,
      "gücü": 7231,
      "i̇brahim": 7232,
      "hata": 7233,
      "bunları": 7234,
      "des": 7235,
      "yazıl": 7236,
      "tören": 7237,
      "dolayısıyla": 7238,
      "........": 7239,
      "sorunu": 7240,
      "anahtar": 7241,
      "umsuz": 7242,
      "barış": 7243,
      "cok": 7244,
      "ti̇c": 7245,
      "düm": 7246,
      "ilerinin": 7247,
      "sep": 7248,
      "mali": 7249,
      "gor": 7250,
      "içine": 7251,
      "yin": 7252,
      "tamir": 7253,
      "vaş": 7254,
      "false": 7255,
      "rom": 7256,
      "belirten": 7257,
      "şüphe": 7258,
      "dk": 7259,
      "ayında": 7260,
      "plak": 7261,
      "alına": 7262,
      "kaldı": 7263,
      "yorumlar": 7264,
      "olmadığı": 7265,
      "kesinlikle": 7266,
      "ydı": 7267,
      "televizyon": 7268,
      "i̇ngilizce": 7269,
      "windows": 7270,
      "kişisel": 7271,
      "i̇ndir": 7272,
      "yazılım": 7273,
      "antika": 7274,
      "boğ": 7275,
      "hayatını": 7276,
      "________": 7277,
      "bitir": 7278,
      "gitti": 7279,
      "durumunda": 7280,
      "kelim": 7281,
      "sağlar": 7282,
      "gb": 7283,
      "85": 7284,
      "korun": 7285,
      "mühendis": 7286,
      "esas": 7287,
      "uyar": 7288,
      "x_": 7289,
      "lıdır": 7290,
      "genellikle": 7291,
      "lığına": 7292,
      "birim": 7293,
      "faiz": 7294,
      "ikti": 7295,
      "istik": 7296,
      "edip": 7297,
      "yapıldı": 7298,
      "şeker": 7299,
      "ihra": 7300,
      "i̇ran": 7301,
      "ast": 7302,
      "bilmesi": 7303,
      "low": 7304,
      "buk": 7305,
      "fetö": 7306,
      "oranı": 7307,
      "baz": 7308,
      "râ": 7309,
      "ölçü": 7310,
      "ate": 7311,
      "tiler": 7312,
      "verme": 7313,
      "geler": 7314,
      "bahç": 7315,
      "ilendir": 7316,
      "firmalar": 7317,
      "câ": 7318,
      "i̇smail": 7319,
      "sağlığı": 7320,
      "lon": 7321,
      "doldur": 7322,
      "harika": 7323,
      "bayra": 7324,
      "iliyor": 7325,
      "aj": 7326,
      "dönemde": 7327,
      "yalı": 7328,
      "isi": 7329,
      "elerine": 7330,
      "land": 7331,
      "i̇li": 7332,
      "ilme": 7333,
      "insta": 7334,
      "ğinin": 7335,
      "düzenleme": 7336,
      "yayım": 7337,
      "kasa": 7338,
      "olmuştur": 7339,
      "lisi": 7340,
      "rik": 7341,
      "tablet": 7342,
      "perş": 7343,
      "kişilik": 7344,
      "sayın": 7345,
      "koltuk": 7346,
      "yumu": 7347,
      "gazetesi": 7348,
      "darbe": 7349,
      "},": 7350,
      "ray": 7351,
      "üçüncü": 7352,
      "sö": 7353,
      "ıldı": 7354,
      "kılıç": 7355,
      "tahmin": 7356,
      "rezervasyon": 7357,
      "makam": 7358,
      "peki": 7359,
      "tecrü": 7360,
      "yedek": 7361,
      "ondan": 7362,
      "komisyon": 7363,
      "yaparak": 7364,
      "sıkı": 7365,
      "yerler": 7366,
      "piş": 7367,
      "elerinde": 7368,
      "kerim": 7369,
      "şamba": 7370,
      "tasyon": 7371,
      "ff": 7372,
      "vit": 7373,
      "ibn": 7374,
      "gerekmektedir": 7375,
      "hesab": 7376,
      "uldu": 7377,
      "nden": 7378,
      "kulü": 7379,
      "hone": 7380,
      "imkan": 7381,
      "87": 7382,
      "zira": 7383,
      "şak": 7384,
      "andro": 7385,
      "lıklar": 7386,
      "bün": 7387,
      "org": 7388,
      "cennet": 7389,
      "çarşamba": 7390,
      "ettir": 7391,
      "perşembe": 7392,
      "köyü": 7393,
      "alarak": 7394,
      "lamaya": 7395,
      "gul": 7396,
      "yav": 7397,
      "yavaş": 7398,
      "dönü": 7399,
      "ıp": 7400,
      "kendine": 7401,
      "müda": 7402,
      "bankası": 7403,
      "danışman": 7404,
      "kullanarak": 7405,
      "ulusal": 7406,
      "giyim": 7407,
      "gr": 7408,
      "sâ": 7409,
      "hika": 7410,
      "kendisi": 7411,
      "ederiz": 7412,
      "ülkemiz": 7413,
      "köp": 7414,
      "bül": 7415,
      "ınar": 7416,
      "eşya": 7417,
      "örneğin": 7418,
      "i̇letişim": 7419,
      "dij": 7420,
      "başta": 7421,
      "yaşında": 7422,
      "kaydet": 7423,
      "sayıda": 7424,
      "başlangı": 7425,
      "erkekler": 7426,
      "anlayı": 7427,
      "sayf": 7428,
      "içerik": 7429,
      "daire": 7430,
      "iphone": 7431,
      "dikten": 7432,
      "üstün": 7433,
      "ceğiz": 7434,
      "tepki": 7435,
      "rem": 7436,
      "düşünce": 7437,
      "belirtti": 7438,
      "avantaj": 7439,
      "düşünü": 7440,
      "bâs": 7441,
      "wo": 7442,
      "cez": 7443,
      "malatya": 7444,
      "kaf": 7445,
      "ll": 7446,
      "til": 7447,
      "61": 7448,
      "kullanımı": 7449,
      "ki̇": 7450,
      "peş": 7451,
      "yıldırım": 7452,
      "yandan": 7453,
      "giden": 7454,
      "load": 7455,
      "sion": 7456,
      "dekorasyon": 7457,
      "zev": 7458,
      "all": 7459,
      "kama": 7460,
      "neti": 7461,
      "yılın": 7462,
      "öncelikle": 7463,
      "yapmış": 7464,
      "büt": 7465,
      "data": 7466,
      "dere": 7467,
      "yerinde": 7468,
      "siyet": 7469,
      "gerektiğini": 7470,
      "chi": 7471,
      "elli": 7472,
      "brik": 7473,
      "enler": 7474,
      "vs": 7475,
      "vüc": 7476,
      "hastalı": 7477,
      "lıkları": 7478,
      "koz": 7479,
      "ât": 7480,
      "bedava": 7481,
      "yılda": 7482,
      "açıklamada": 7483,
      "artış": 7484,
      "sürec": 7485,
      "vb": 7486,
      "bayanlar": 7487,
      "dinle": 7488,
      "diniz": 7489,
      "i̇p": 7490,
      "acil": 7491,
      "meydan": 7492,
      "kanalı": 7493,
      "türü": 7494,
      "suyu": 7495,
      "ilişki": 7496,
      "i̇ngiltere": 7497,
      "trafik": 7498,
      "seyin": 7499,
      "diyarbakır": 7500,
      "ulması": 7501,
      "imizde": 7502,
      "bitki": 7503,
      "diyen": 7504,
      "koru": 7505,
      "ibe": 7506,
      "sesu": 7507,
      "eg": 7508,
      "miy": 7509,
      "erinden": 7510,
      "merhaba": 7511,
      "urfa": 7512,
      "vücut": 7513,
      "bölgesinde": 7514,
      "pozisyon": 7515,
      "bilme": 7516,
      "şiş": 7517,
      "masın": 7518,
      "gaziantep": 7519,
      "teşekkürler": 7520,
      "elbise": 7521,
      "kırı": 7522,
      "dijital": 7523,
      "tüp": 7524,
      "kayseri": 7525,
      "melek": 7526,
      "sağlamak": 7527,
      "istediğiniz": 7528,
      "bulunuyor": 7529,
      "vin": 7530,
      "tuz": 7531,
      "emlak": 7532,
      "umak": 7533,
      "arac": 7534,
      "zorun": 7535,
      "mersin": 7536,
      "layarak": 7537,
      "ulan": 7538,
      "back": 7539,
      "vik": 7540,
      "analiz": 7541,
      "meclis": 7542,
      "yaralan": 7543,
      "tiyat": 7544,
      "konuk": 7545,
      "disi": 7546,
      "larımızın": 7547,
      "android": 7548,
      "tedar": 7549,
      "kayde": 7550,
      "adresi": 7551,
      "umut": 7552,
      "emre": 7553,
      "maş": 7554,
      "hükümet": 7555,
      "ika": 7556,
      "terek": 7557,
      "abbâs": 7558,
      "öncesi": 7559,
      "i̇liş": 7560,
      "etmektedir": 7561,
      "ecektir": 7562,
      "olmu": 7563,
      "temizlik": 7564,
      "etmeye": 7565,
      "laşma": 7566,
      "je": 7567,
      "hayata": 7568,
      "tutar": 7569,
      "saray": 7570,
      "tacak": 7571,
      "ramazan": 7572,
      "yıllar": 7573,
      "üyelik": 7574,
      "bö": 7575,
      "almış": 7576,
      "lâm": 7577,
      "güvenli": 7578,
      "hab": 7579,
      "nüf": 7580,
      "ail": 7581,
      "pkk": 7582,
      "ölü": 7583,
      "kocaeli": 7584,
      "ibex_": 7585,
      "etmiştir": 7586,
      "gide": 7587,
      "ld": 7588,
      "festi": 7589,
      "elbet": 7590,
      "hastanesi": 7591,
      "düzel": 7592,
      "koruma": 7593,
      "keyif": 7594,
      "olumsuz": 7595,
      "les": 7596,
      "lezz": 7597,
      "72": 7598,
      "soft": 7599,
      "uygulamalar": 7600,
      "olanlar": 7601,
      "kese": 7602,
      "yapım": 7603,
      "i̇kinci": 7604,
      "bot": 7605,
      "şirk": 7606,
      "komu": 7607,
      "gösteren": 7608,
      "garanti": 7609,
      "amer": 7610,
      "brıs": 7611,
      "etiket": 7612,
      "taşın": 7613,
      "yola": 7614,
      "şap": 7615,
      "ayrıntı": 7616,
      "aksesu": 7617,
      "bala": 7618,
      "ferans": 7619,
      "pg": 7620,
      "82": 7621,
      "bom": 7622,
      "iddia": 7623,
      "kok": 7624,
      "aşırı": 7625,
      "cağınız": 7626,
      "yerli": 7627,
      "iptal": 7628,
      "vakit": 7629,
      "örgüt": 7630,
      "(\"": 7631,
      "ves": 7632,
      "karan": 7633,
      "balar": 7634,
      "imza": 7635,
      "deneyim": 7636,
      "ayn": 7637,
      "tev": 7638,
      "wid": 7639,
      "sorgu": 7640,
      "ticari": 7641,
      "öden": 7642,
      "alanda": 7643,
      "maktan": 7644,
      "koç": 7645,
      "urum": 7646,
      "cs": 7647,
      "micro": 7648,
      "kahve": 7649,
      "tedarik": 7650,
      "nere": 7651,
      "kw": 7652,
      "hakim": 7653,
      "saf": 7654,
      "sona": 7655,
      "hoca": 7656,
      "yakalan": 7657,
      "karakter": 7658,
      "hikaye": 7659,
      "ceğini": 7660,
      "kıbrıs": 7661,
      "uçuş": 7662,
      "81": 7663,
      "alter": 7664,
      "açıklaması": 7665,
      "kurtar": 7666,
      "yaşındaki": 7667,
      "güzellik": 7668,
      "nitekim": 7669,
      "sus": 7670,
      "dola": 7671,
      "74": 7672,
      "150": 7673,
      "ğer": 7674,
      "düşür": 7675,
      "nitelik": 7676,
      "depre": 7677,
      "liler": 7678,
      "soruştur": 7679,
      "lığında": 7680,
      "yumur": 7681,
      "sözleri": 7682,
      "sahne": 7683,
      "fit": 7684,
      "text": 7685,
      "yerleştir": 7686,
      "yiye": 7687,
      "sivil": 7688,
      "buz": 7689,
      "karşısında": 7690,
      "güvenilir": 7691,
      "py": 7692,
      "95": 7693,
      "tipi": 7694,
      "tit": 7695,
      "nev": 7696,
      "nakli": 7697,
      "hik": 7698,
      "xx": 7699,
      "verildi": 7700,
      "değişim": 7701,
      "bine": 7702,
      "yil": 7703,
      "ediyoruz": 7704,
      "mikro": 7705,
      "devre": 7706,
      "laması": 7707,
      "günün": 7708,
      "tanıtım": 7709,
      "oyunları": 7710,
      "mi̇": 7711,
      "pir": 7712,
      "aktar": 7713,
      "i̇nşaat": 7714,
      "i̇şlet": 7715,
      "utu": 7716,
      "ilçesinde": 7717,
      "zam": 7718,
      "manıza": 7719,
      "çevr": 7720,
      "törü": 7721,
      "soğuk": 7722,
      "sabit": 7723,
      "tehdi": 7724,
      "âr": 7725,
      "zayıf": 7726,
      "malzemeleri": 7727,
      "tasarı": 7728,
      "63": 7729,
      "öte": 7730,
      "azı": 7731,
      "ght": 7732,
      "zel": 7733,
      "tiyatro": 7734,
      "çap": 7735,
      "ameli": 7736,
      "mıyla": 7737,
      "leniyor": 7738,
      "performans": 7739,
      "askeri": 7740,
      "ışı": 7741,
      "meyin": 7742,
      "asıl": 7743,
      "2000": 7744,
      "bebe": 7745,
      "davranış": 7746,
      "isimli": 7747,
      "alıp": 7748,
      "kameralı": 7749,
      "istan": 7750,
      "ydi": 7751,
      "ısı": 7752,
      "olmadan": 7753,
      "alıntı": 7754,
      "tabii": 7755,
      "uyum": 7756,
      "insanın": 7757,
      "bb": 7758,
      "aksesuar": 7759,
      "varı": 7760,
      "siten": 7761,
      "politik": 7762,
      "miyorum": 7763,
      "artı": 7764,
      "gönderen": 7765,
      "renkli": 7766,
      "jen": 7767,
      "ürünü": 7768,
      "usunu": 7769,
      "uluğu": 7770,
      "satılık": 7771,
      "etkisi": 7772,
      "lum": 7773,
      "ýn": 7774,
      "mol": 7775,
      "kendisini": 7776,
      "fakültesi": 7777,
      "liğinde": 7778,
      "shar": 7779,
      "73": 7780,
      "akti": 7781,
      "kartı": 7782,
      "önüne": 7783,
      "use": 7784,
      "2006": 7785,
      "kahval": 7786,
      "))": 7787,
      "düşman": 7788,
      "dıklarını": 7789,
      "vücu": 7790,
      "tri": 7791,
      "ligi": 7792,
      "açıkladı": 7793,
      "yanıtla": 7794,
      "yerleş": 7795,
      "yetiştir": 7796,
      "başlar": 7797,
      "yorumları": 7798,
      "olumlu": 7799,
      "otelleri": 7800,
      "inşa": 7801,
      "makinesi": 7802,
      "arya": 7803,
      "samsung": 7804,
      "uni": 7805,
      "tol": 7806,
      "zih": 7807,
      "fizik": 7808,
      "feder": 7809,
      "star": 7810,
      "row": 7811,
      "üsü": 7812,
      "sebeb": 7813,
      "dışarı": 7814,
      "leriniz": 7815,
      "uğur": 7816,
      "görüntülü": 7817,
      "cısı": 7818,
      "alarını": 7819,
      "mede": 7820,
      "ura": 7821,
      "dili": 7822,
      "buyurdu": 7823,
      "azal": 7824,
      "amerik": 7825,
      "mate": 7826,
      "bi̇l": 7827,
      "fabrika": 7828,
      "71": 7829,
      "recep": 7830,
      "korku": 7831,
      "king": 7832,
      "nakle": 7833,
      "atıl": 7834,
      "çanak": 7835,
      "84": 7836,
      "di̇r": 7837,
      "yağmur": 7838,
      "emir": 7839,
      "güc": 7840,
      "telefonu": 7841,
      "yapımı": 7842,
      "ag": 7843,
      "aley": 7844,
      "izmir": 7845,
      "ilebilir": 7846,
      "><": 7847,
      "hum": 7848,
      "ladığı": 7849,
      "mg": 7850,
      "belirli": 7851,
      "ihtiyacı": 7852,
      "zeytin": 7853,
      "fayda": 7854,
      "kağıt": 7855,
      "kalın": 7856,
      "süley": 7857,
      "maçı": 7858,
      "muk": 7859,
      "görme": 7860,
      "??": 7861,
      "aşı": 7862,
      "sahiptir": 7863,
      "bekle": 7864,
      "maması": 7865,
      "i̇d": 7866,
      "platform": 7867,
      "konular": 7868,
      "sinema": 7869,
      "mıyorum": 7870,
      "gerektir": 7871,
      "tc": 7872,
      "ğinden": 7873,
      "vah": 7874,
      "kahvaltı": 7875,
      "çanta": 7876,
      "sitemiz": 7877,
      "kampanya": 7878,
      "62": 7879,
      "alındı": 7880,
      "ron": 7881,
      "grid": 7882,
      "kral": 7883,
      "edebiyat": 7884,
      "tma": 7885,
      "belirterek": 7886,
      "anlamda": 7887,
      "yaygın": 7888,
      "dahi": 7889,
      "ılır": 7890,
      "----------------": 7891,
      "tâ": 7892,
      "çuk": 7893,
      "geçerli": 7894,
      "mhp": 7895,
      "onya": 7896,
      "partisi": 7897,
      "arkadaşı": 7898,
      "haberi": 7899,
      "nün": 7900,
      "dedim": 7901,
      "paylaşım": 7902,
      "teşkil": 7903,
      "iyer": 7904,
      "kamera": 7905,
      "bileti": 7906,
      "sorular": 7907,
      "döneminde": 7908,
      "fransa": 7909,
      "stok": 7910,
      "nar": 7911,
      "ob": 7912,
      "luğ": 7913,
      "sürede": 7914,
      "çocukların": 7915,
      "sağlayan": 7916,
      "onur": 7917,
      "özelliği": 7918,
      "kısmı": 7919,
      "tarak": 7920,
      "plastik": 7921,
      "gh": 7922,
      "trip": 7923,
      "trabzonspor": 7924,
      "yalnızca": 7925,
      "yaşlı": 7926,
      "sevgi": 7927,
      "erz": 7928,
      "i̇ye": 7929,
      "selam": 7930,
      "ehir": 7931,
      "komp": 7932,
      "göç": 7933,
      "bahse": 7934,
      "malara": 7935,
      "coin": 7936,
      "istem": 7937,
      "birden": 7938,
      "numara": 7939,
      "jap": 7940,
      "mus": 7941,
      "içeren": 7942,
      "havalim": 7943,
      "denizli": 7944,
      "bran": 7945,
      "tefsir": 7946,
      "bük": 7947,
      "zil": 7948,
      "etmesi": 7949,
      "function": 7950,
      "nat": 7951,
      "tarz": 7952,
      "...]": 7953,
      "oteller": 7954,
      "kör": 7955,
      "sonuçları": 7956,
      "mül": 7957,
      "tanrı": 7958,
      "gemi": 7959,
      "lanmıştır": 7960,
      "süleyman": 7961,
      "iken": 7962,
      "heyecan": 7963,
      "maden": 7964,
      "kenin": 7965,
      "nt": 7966,
      "harita": 7967,
      "maliyet": 7968,
      "bilinen": 7969,
      "savunma": 7970,
      "müsa": 7971,
      "df": 7972,
      "şehr": 7973,
      "yapmaya": 7974,
      "cının": 7975,
      "edilmiş": 7976,
      "sonucunda": 7977,
      "elbette": 7978,
      "vat": 7979,
      "çik": 7980,
      "endü": 7981,
      "sanatçı": 7982,
      "malarını": 7983,
      "apple": 7984,
      "kere": 7985,
      "organizasyon": 7986,
      "liğe": 7987,
      "mos": 7988,
      "uydu": 7989,
      "bis": 7990,
      "geçtiğimiz": 7991,
      "herkesin": 7992,
      "yaj": 7993,
      "olduğuna": 7994,
      "olmalı": 7995,
      "süs": 7996,
      "masıyla": 7997,
      "ınızda": 7998,
      "time": 7999,
      "giren": 8000,
      "bileceğini": 8001,
      "hakları": 8002,
      "yakı": 8003,
      "vazgeç": 8004,
      "show": 8005,
      "max": 8006,
      "hizmetler": 8007,
      "halkı": 8008,
      "hanım": 8009,
      "yaları": 8010,
      "dokun": 8011,
      "rahmet": 8012,
      "çat": 8013,
      "ahmed": 8014,
      "bakış": 8015,
      "nakliye": 8016,
      "serg": 8017,
      "yordu": 8018,
      "98": 8019,
      "mezun": 8020,
      "rum": 8021,
      "akadem": 8022,
      "irak": 8023,
      "kalb": 8024,
      "i̇srail": 8025,
      "şampiyon": 8026,
      "lamaz": 8027,
      "i̇slâm": 8028,
      "yedi": 8029,
      "kapak": 8030,
      "tifi": 8031,
      "anlamına": 8032,
      "anım": 8033,
      "eşit": 8034,
      "esel": 8035,
      "sizler": 8036,
      "gelenek": 8037,
      "algı": 8038,
      "hisar": 8039,
      "siteler": 8040,
      "katıldı": 8041,
      "las": 8042,
      "okuma": 8043,
      "işler": 8044,
      "ulmuş": 8045,
      "gençlik": 8046,
      "meyve": 8047,
      "kesim": 8048,
      "imz": 8049,
      "kavram": 8050,
      "muhal": 8051,
      "liğine": 8052,
      "bisiklet": 8053,
      "400": 8054,
      "96": 8055,
      "hı": 8056,
      "nam": 8057,
      "wat": 8058,
      "durdur": 8059,
      "orijinal": 8060,
      "temin": 8061,
      "vid": 8062,
      "asi": 8063,
      "ğan": 8064,
      "doğrudan": 8065,
      "bulut": 8066,
      "buraya": 8067,
      "yaman": 8068,
      "url": 8069,
      "sez": 8070,
      "alterna": 8071,
      "uyan": 8072,
      "wi": 8073,
      "arda": 8074,
      "alb": 8075,
      "arıyorum": 8076,
      "yetkili": 8077,
      "eleman": 8078,
      "hüseyin": 8079,
      "mda": 8080,
      "tanış": 8081,
      "drum": 8082,
      "işlemi": 8083,
      "cy": 8084,
      "iyan": 8085,
      "ble": 8086,
      "\"]": 8087,
      "eline": 8088,
      "yeryüz": 8089,
      "öğrencilerin": 8090,
      "salon": 8091,
      "taz": 8092,
      "banyo": 8093,
      "bara": 8094,
      "120": 8095,
      "söylü": 8096,
      "gelişim": 8097,
      "başar": 8098,
      "97": 8099,
      "reti": 8100,
      "stre": 8101,
      "telek": 8102,
      "bağımsız": 8103,
      "olası": 8104,
      "mısır": 8105,
      "yıkama": 8106,
      "bakın": 8107,
      "i̇dar": 8108,
      "arayı": 8109,
      "maye": 8110,
      "takv": 8111,
      "lor": 8112,
      "arşi": 8113,
      "html": 8114,
      "jik": 8115,
      "memiş": 8116,
      "lise": 8117,
      "vermiş": 8118,
      "hit": 8119,
      "yazan": 8120,
      "('": 8121,
      "devamı": 8122,
      "ilerek": 8123,
      "denetim": 8124,
      "adaki": 8125,
      "arz": 8126,
      "arız": 8127,
      "uygulaması": 8128,
      "bildirim": 8129,
      "bodrum": 8130,
      "yanık": 8131,
      "i̇şlem": 8132,
      "kurban": 8133,
      "toz": 8134,
      "kimi": 8135,
      "modeli": 8136,
      "pren": 8137,
      "market": 8138,
      "rist": 8139,
      "lerimizi": 8140,
      "ov": 8141,
      "konuşma": 8142,
      "kullanılır": 8143,
      "83": 8144,
      "xy": 8145,
      "köşe": 8146,
      "tüket": 8147,
      "i̇çer": 8148,
      "köpek": 8149,
      "eig": 8150,
      "amaz": 8151,
      "down": 8152,
      "bulmak": 8153,
      "fol": 8154,
      "plu": 8155,
      "lığıyla": 8156,
      "klima": 8157,
      "bölgesi": 8158,
      "çoğ": 8159,
      "paylaşı": 8160,
      "sürücü": 8161,
      "leyin": 8162,
      "steri": 8163,
      "gat": 8164,
      "sec": 8165,
      "yıllarda": 8166,
      "bze": 8167,
      "mektu": 8168,
      "ştür": 8169,
      "urken": 8170,
      "kanunu": 8171,
      "sözü": 8172,
      "getiren": 8173,
      "süreci": 8174,
      "çeken": 8175,
      "kongre": 8176,
      "you": 8177,
      "çekme": 8178,
      "kayıp": 8179,
      "pola": 8180,
      "evren": 8181,
      "kalem": 8182,
      "oo": 8183,
      "sorumluluk": 8184,
      "günlerde": 8185,
      "gelmiş": 8186,
      "super": 8187,
      "bekli": 8188,
      "lal": 8189,
      "bilirim": 8190,
      "edilecek": 8191,
      "room_": 8192,
      "inize": 8193,
      "önceden": 8194,
      "suy": 8195,
      "wa": 8196,
      "dediler": 8197,
      "rakam": 8198,
      "herkese": 8199,
      "radyo": 8200,
      "görsel": 8201,
      "ildiği": 8202,
      "binlerce": 8203,
      "sch": 8204,
      "vâ": 8205,
      "verecek": 8206,
      "yangın": 8207,
      "pin": 8208,
      "finans": 8209,
      "anayasa": 8210,
      "city": 8211,
      "air": 8212,
      "kök": 8213,
      "madığı": 8214,
      "yapıla": 8215,
      "şanlı": 8216,
      "alarına": 8217,
      "i̇çi̇n": 8218,
      "duyg": 8219,
      "sanal": 8220,
      "forex": 8221,
      "nakliyat": 8222,
      "mân": 8223,
      "uyucu": 8224,
      "gro": 8225,
      "düzenli": 8226,
      "avukat": 8227,
      "rüz": 8228,
      "sağlam": 8229,
      "bununla": 8230,
      "tey": 8231,
      "muhakk": 8232,
      "kişehir": 8233,
      "with": 8234,
      "kişilerin": 8235,
      "ülkenin": 8236,
      "dılar": 8237,
      "karş": 8238,
      "hadisi": 8239,
      "lerdi": 8240,
      "evden": 8241,
      "teşem": 8242,
      "ği̇": 8243,
      "kurumu": 8244,
      "rast": 8245,
      "250": 8246,
      "ulaşım": 8247,
      "leşme": 8248,
      "eşi": 8249,
      "başlangıç": 8250,
      "etraf": 8251,
      "gali": 8252,
      "muhteşem": 8253,
      "pamuk": 8254,
      "ofis": 8255,
      "kutu": 8256,
      "muhakkak": 8257,
      "frag": 8258,
      "celer": 8259,
      "üzerindeki": 8260,
      "hisset": 8261,
      "m2": 8262,
      "nedeni": 8263,
      "karşılaştır": 8264,
      "teb": 8265,
      "style": 8266,
      "adayı": 8267,
      "kurumsal": 8268,
      "karıştır": 8269,
      "opsiyon": 8270,
      "tüketi": 8271,
      "[...]": 8272,
      "unsur": 8273,
      "priz": 8274,
      "çanakkale": 8275,
      "öre": 8276,
      "servi": 8277,
      "kazandır": 8278,
      "bilgilendir": 8279,
      "==": 8280,
      "eral": 8281,
      "vası": 8282,
      "tekstil": 8283,
      "şük": 8284,
      "duğunu": 8285,
      "lezzet": 8286,
      "arasından": 8287,
      "lanabilir": 8288,
      "şeri": 8289,
      "ilgilen": 8290,
      "ılmış": 8291,
      "diyerek": 8292,
      "bulma": 8293,
      "manızı": 8294,
      "kurs": 8295,
      "youtu": 8296,
      "img": 8297,
      "fili": 8298,
      "layıcı": 8299,
      "lok": 8300,
      "shi": 8301,
      "manisa": 8302,
      "kanalıyla": 8303,
      "rük": 8304,
      "lav": 8305,
      "ğla": 8306,
      "akar": 8307,
      "urn": 8308,
      "finan": 8309,
      "cha": 8310,
      "giler": 8311,
      "larındaki": 8312,
      "düştü": 8313,
      "hayırlı": 8314,
      "hy": 8315,
      "ortadan": 8316,
      "stri": 8317,
      "demektir": 8318,
      "mizi": 8319,
      "gezi": 8320,
      "yarın": 8321,
      "kumaş": 8322,
      "final": 8323,
      "kaynağı": 8324,
      "düşünüyorum": 8325,
      "işık": 8326,
      "edilmiştir": 8327,
      "3d": 8328,
      "yaralı": 8329,
      "eyle": 8330,
      "larımızı": 8331,
      "alarının": 8332,
      "gon": 8333,
      "üle": 8334,
      "kg": 8335,
      "visor": 8336,
      "mahkeme": 8337,
      "out": 8338,
      "adını": 8339,
      "lili": 8340,
      "yönetmen": 8341,
      "ündeki": 8342,
      "makyaj": 8343,
      "olanak": 8344,
      "başlat": 8345,
      "şirketi": 8346,
      "class": 8347,
      "ebe": 8348,
      "eriş": 8349,
      "değerlendirme": 8350,
      "sup": 8351,
      "desteği": 8352,
      "hara": 8353,
      "riyet": 8354,
      "kâr": 8355,
      "slo": 8356,
      "magaz": 8357,
      "harca": 8358,
      "irken": 8359,
      "ure": 8360,
      "denet": 8361,
      "olmasını": 8362,
      "klar": 8363,
      "pazarlama": 8364,
      "buradan": 8365,
      "kişiye": 8366,
      "bekliyor": 8367,
      "bilgisi": 8368,
      "köprü": 8369,
      "moti": 8370,
      "masyon": 8371,
      "günümüzde": 8372,
      "şallah": 8373,
      "demi": 8374,
      "pc": 8375,
      "lıkta": 8376,
      "[\"": 8377,
      "ismi": 8378,
      "amik": 8379,
      "elerinden": 8380,
      "sakarya": 8381,
      "imin": 8382,
      "şef": 8383,
      "bra": 8384,
      "gözaltına": 8385,
      "şarj": 8386,
      "alternatif": 8387,
      "futbolcu": 8388,
      "ök": 8389,
      "görülen": 8390,
      "olmasına": 8391,
      "ünüz": 8392,
      "tedavisi": 8393,
      "lardaki": 8394,
      "ettiğini": 8395,
      "doç": 8396,
      "kalk": 8397,
      "widget": 8398,
      "küresel": 8399,
      "ilanları": 8400,
      "tülen": 8401,
      "sanki": 8402,
      "advisor": 8403,
      "kaçır": 8404,
      "press": 8405,
      "yolcu": 8406,
      "dul": 8407,
      "gy": 8408,
      "makal": 8409,
      "bozuk": 8410,
      "coun": 8411,
      "pınar": 8412,
      "sper": 8413,
      "alara": 8414,
      "geçiş": 8415,
      "açıklamalar": 8416,
      "okunma": 8417,
      "ırlar": 8418,
      "şacak": 8419,
      "yaşar": 8420,
      "dor": 8421,
      "teri": 8422,
      "stir": 8423,
      "rey": 8424,
      "spon": 8425,
      "yetkil": 8426,
      "sermaye": 8427,
      "siri": 8428,
      "landığı": 8429,
      "enf": 8430,
      "hekim": 8431,
      "faydalı": 8432,
      "vic": 8433,
      "güvenliği": 8434,
      "şahin": 8435,
      "akl": 8436,
      "usul": 8437,
      "lığının": 8438,
      "acaba": 8439,
      "rk": 8440,
      "hatay": 8441,
      "kupa": 8442,
      "cere": 8443,
      "sino": 8444,
      "2005": 8445,
      "biçimde": 8446,
      "dig": 8447,
      "bulan": 8448,
      "dilek": 8449,
      "önemlidir": 8450,
      "sör": 8451,
      "grafik": 8452,
      "eskişehir": 8453,
      "politika": 8454,
      "asya": 8455,
      "yardı": 8456,
      "i̇şleri": 8457,
      "şet": 8458,
      "dernek": 8459,
      "hali": 8460,
      "basket": 8461,
      "hastane": 8462,
      "kullandı": 8463,
      "i̇span": 8464,
      "özen": 8465,
      "lenecek": 8466,
      "çisi": 8467,
      "klasik": 8468,
      "belirtilen": 8469,
      "yem": 8470,
      "başlıyor": 8471,
      "devr": 8472,
      "şk": 8473,
      "usun": 8474,
      "elerden": 8475,
      "bolu": 8476,
      "naklet": 8477,
      "i̇y": 8478,
      "mimar": 8479,
      "ars": 8480,
      "ıcı": 8481,
      "bölgede": 8482,
      "beslenme": 8483,
      "listesi": 8484,
      "home": 8485,
      "hatırla": 8486,
      "ilç": 8487,
      "telekom": 8488,
      "şüphesiz": 8489,
      "tro": 8490,
      "i̇zle": 8491,
      "cev": 8492,
      "gesi": 8493,
      "kiralama": 8494,
      "ref": 8495,
      "seks": 8496,
      "oyunc": 8497,
      "conten": 8498,
      "feri": 8499,
      "kup": 8500,
      "borsa": 8501,
      "ilerine": 8502,
      "gere": 8503,
      "oldukları": 8504,
      "ülen": 8505,
      "kimlik": 8506,
      "şirketleri": 8507,
      "rehberi": 8508,
      "erzurum": 8509,
      "yönlendir": 8510,
      "dünyaya": 8511,
      "tehdit": 8512,
      "room_grid": 8513,
      "pik": 8514,
      "alımı": 8515,
      "söyleye": 8516,
      "anlaşıl": 8517,
      "ump": 8518,
      "büro": 8519,
      "istih": 8520,
      "saydı": 8521,
      "asyonu": 8522,
      "yatır": 8523,
      "cc": 8524,
      "inda": 8525,
      "buluş": 8526,
      "istek": 8527,
      "petrol": 8528,
      "kıy": 8529,
      "kola": 8530,
      "seyir": 8531,
      "fransız": 8532,
      "yapabilirsiniz": 8533,
      "bağış": 8534,
      "gidiyor": 8535,
      "çatı": 8536,
      "stur": 8537,
      "öneri": 8538,
      "ğiyle": 8539,
      "yiyecek": 8540,
      "tripadvisor": 8541,
      "onlardan": 8542,
      "play": 8543,
      "yapılmış": 8544,
      "saldır": 8545,
      "tayyip": 8546,
      "hediy": 8547,
      "cumhuriyeti": 8548,
      "leyici": 8549,
      "yaka": 8550,
      "açılış": 8551,
      "?”": 8552,
      "seti": 8553,
      "söyleyen": 8554,
      "yaptığını": 8555,
      "çoğun": 8556,
      "örgütü": 8557,
      "eng": 8558,
      "ire": 8559,
      "sağlayacak": 8560,
      "mobilya": 8561,
      "sebebi": 8562,
      "):": 8563,
      "ihtim": 8564,
      "tedbir": 8565,
      "dönüştür": 8566,
      "hotels": 8567,
      "enst": 8568,
      "kesil": 8569,
      "perde": 8570,
      "wer": 8571,
      "oğul": 8572,
      "iyile": 8573,
      "yah": 8574,
      "demiştir": 8575,
      "mamak": 8576,
      "tech": 8577,
      "kaçak": 8578,
      "toplumsal": 8579,
      "try": 8580,
      "dönemi": 8581,
      "asını": 8582,
      "bankalar": 8583,
      "nefes": 8584,
      "duyar": 8585,
      "fonk": 8586,
      "bulabilirsiniz": 8587,
      "benzeri": 8588,
      "önümüz": 8589,
      "yolları": 8590,
      "ال": 8591,
      "tran": 8592,
      "600": 8593,
      "92": 8594,
      "kadının": 8595,
      "bulunur": 8596,
      "resimleri": 8597,
      "lit": 8598,
      "yerini": 8599,
      "güne": 8600,
      "ediliyor": 8601,
      "94": 8602,
      "unuzu": 8603,
      "youtube": 8604,
      "tme": 8605,
      "savaşı": 8606,
      "abet": 8607,
      "faydalan": 8608,
      "adi": 8609,
      "okundu": 8610,
      "usuna": 8611,
      "file": 8612,
      "özet": 8613,
      "görür": 8614,
      "put": 8615,
      "çıkıyor": 8616,
      "isyen": 8617,
      "insanları": 8618,
      "93": 8619,
      "mesajlar": 8620,
      "kanser": 8621,
      "oyuncak": 8622,
      "havuz": 8623,
      "çıkarıl": 8624,
      "kelime": 8625,
      "anıyor": 8626,
      "cation": 8627,
      "değeri": 8628,
      "âl": 8629,
      "kazanç": 8630,
      "ülkemizde": 8631,
      "bütçe": 8632,
      "areti": 8633,
      "karşılık": 8634,
      "dın": 8635,
      "mr": 8636,
      "şekli": 8637,
      "olduğumuz": 8638,
      "sağlaya": 8639,
      "birik": 8640,
      "amı": 8641,
      "ulaştır": 8642,
      "neredeyse": 8643,
      "ela": 8644,
      "yapın": 8645,
      "sonuna": 8646,
      "konser": 8647,
      "ulaşı": 8648,
      "”,": 8649,
      "sivas": 8650,
      "beli": 8651,
      "cial": 8652,
      "yaparken": 8653,
      "casino": 8654,
      "belgesi": 8655,
      "mana": 8656,
      "fonksiyon": 8657,
      "lamış": 8658,
      "deprem": 8659,
      "dök": 8660,
      "sinir": 8661,
      "getirdi": 8662,
      "bakımından": 8663,
      "yaklaş": 8664,
      "anan": 8665,
      "partner": 8666,
      "rika": 8667,
      "bitcoin": 8668,
      "meni": 8669,
      "suna": 8670,
      "dilen": 8671,
      "çalışması": 8672,
      "kadir": 8673,
      "gelince": 8674,
      "cinin": 8675,
      "dey": 8676,
      "rahi": 8677,
      "akdeniz": 8678,
      "elle": 8679,
      "önlem": 8680,
      "demokrasi": 8681,
      "besin": 8682,
      "share": 8683,
      "imen": 8684,
      "\":{\"": 8685,
      "kendilerini": 8686,
      "ülkede": 8687,
      "rehber": 8688,
      "salonu": 8689,
      "derler": 8690,
      "uf": 8691,
      "evler": 8692,
      "lanarak": 8693,
      "sevgil": 8694,
      "huku": 8695,
      "said": 8696,
      "sebeple": 8697,
      "virüs": 8698,
      "teşvik": 8699,
      "hakan": 8700,
      "hazırlık": 8701,
      "raporu": 8702,
      "şunları": 8703,
      "seçenekleri": 8704,
      "işin": 8705,
      "işlemleri": 8706,
      "diyorum": 8707,
      "dede": 8708,
      "stin": 8709,
      "landa": 8710,
      "terörist": 8711,
      "tılan": 8712,
      "sandal": 8713,
      "dler": 8714,
      "yetenek": 8715,
      "kaları": 8716,
      "amel": 8717,
      "aziz": 8718,
      "taraftar": 8719,
      "amerikan": 8720,
      "kaş": 8721,
      "dırma": 8722,
      "seler": 8723,
      "almaktadır": 8724,
      "çalıştır": 8725,
      "takdirde": 8726,
      "önde": 8727,
      "i̇la": 8728,
      "inşaat": 8729,
      "birini": 8730,
      "işç": 8731,
      "instagram": 8732,
      "rahatsız": 8733,
      "yorumla": 8734,
      "çeşme": 8735,
      "görünüm": 8736,
      "olduğundan": 8737,
      "boğaz": 8738,
      "ting": 8739,
      "sigara": 8740,
      "müşteriler": 8741,
      "hocam": 8742,
      "anlama": 8743,
      "kırık": 8744,
      "konuyu": 8745,
      "yumuşak": 8746,
      "zorunlu": 8747,
      "evlen": 8748,
      "katılan": 8749,
      "()": 8750,
      "microsoft": 8751,
      "had": 8752,
      "delil": 8753,
      "bm": 8754,
      "yahu": 8755,
      "düşen": 8756,
      "wil": 8757,
      "saati": 8758,
      "göm": 8759,
      "ach": 8760,
      "ınızın": 8761,
      "hapis": 8762,
      "çalışıyor": 8763,
      "ous": 8764,
      "kısım": 8765,
      "abi": 8766,
      "icin": 8767,
      "cre": 8768,
      "iter": 8769,
      "tuğ": 8770,
      "sakin": 8771,
      "söyler": 8772,
      "ep": 8773,
      "gelip": 8774,
      "kali": 8775,
      "bunlardan": 8776,
      "girdi": 8777,
      "çıkma": 8778,
      "serisi": 8779,
      "biletleri": 8780,
      "inti": 8781,
      "bayramı": 8782,
      "kayb": 8783,
      "varlık": 8784,
      "selçuk": 8785,
      "çocuğun": 8786,
      "doğrult": 8787,
      "alınması": 8788,
      "kiralık": 8789,
      "biyo": 8790,
      "damar": 8791,
      "ciz": 8792,
      "but": 8793,
      "misiniz": 8794,
      "tefsiri": 8795,
      "açılan": 8796,
      "cehen": 8797,
      "gayr": 8798,
      "tarihleri": 8799,
      "inn": 8800,
      "yakala": 8801,
      "eğlence": 8802,
      "havalimanı": 8803,
      "what": 8804,
      "açma": 8805,
      "yusu": 8806,
      "semin": 8807,
      "bulundur": 8808,
      "montaj": 8809,
      "tarifi": 8810,
      "falan": 8811,
      "ambala": 8812,
      "aşağıda": 8813,
      "zirve": 8814,
      "yapısı": 8815,
      "sr": 8816,
      "talar": 8817,
      "haya": 8818,
      "mağdur": 8819,
      "kullanmak": 8820,
      "spa": 8821,
      "küf": 8822,
      "üyeleri": 8823,
      "yolunda": 8824,
      "i̇talya": 8825,
      "yüce": 8826,
      "yüzü": 8827,
      "gran": 8828,
      "erişim": 8829,
      "âyeti": 8830,
      "char": 8831,
      "nelerdir": 8832,
      "dah": 8833,
      "maaş": 8834,
      "dro": 8835,
      "gösteri": 8836,
      "lıp": 8837,
      "attı": 8838,
      "110": 8839,
      "que": 8840,
      "boyu": 8841,
      "lenmiştir": 8842,
      "kombi": 8843,
      "babası": 8844,
      "ambalaj": 8845,
      "uluğ": 8846,
      "ruk": 8847,
      "aldım": 8848,
      "und": 8849,
      "yeni̇": 8850,
      "oyu": 8851,
      "düğünü": 8852,
      "olacağını": 8853,
      "galeri": 8854,
      "edebilirsiniz": 8855,
      "melik": 8856,
      "larımıza": 8857,
      "kulübü": 8858,
      "gerçe": 8859,
      "aslan": 8860,
      "taksit": 8861,
      "doğa": 8862,
      "admin": 8863,
      "şaşır": 8864,
      "yoluyla": 8865,
      "scrip": 8866,
      "koor": 8867,
      "maraş": 8868,
      "kiz": 8869,
      "mekten": 8870,
      "diğine": 8871,
      "balıkesir": 8872,
      "apart": 8873,
      "almaya": 8874,
      "nesil": 8875,
      "cezası": 8876,
      "mesela": 8877,
      "eği̇t": 8878,
      "niha": 8879,
      "hn": 8880,
      "buyurur": 8881,
      "çağır": 8882,
      "kategor": 8883,
      "yorumu": 8884,
      "yusuf": 8885,
      "sözler": 8886,
      "şanlıurfa": 8887,
      "atak": 8888,
      "kimdir": 8889,
      "hdp": 8890,
      "vizyon": 8891,
      "şti̇": 8892,
      "harf": 8893,
      "cim": 8894,
      "ilerle": 8895,
      "kullanma": 8896,
      "iğ": 8897,
      "ücreti": 8898,
      "mevzu": 8899,
      "tm": 8900,
      "gezgin": 8901,
      "esnaf": 8902,
      "kelimeler": 8903,
      "niş": 8904,
      "ekipleri": 8905,
      "iade": 8906,
      "yönel": 8907,
      "seçene": 8908,
      "kadınların": 8909,
      "kısaca": 8910,
      "anacak": 8911,
      "tercü": 8912,
      "muğla": 8913,
      "iktidar": 8914,
      "iner": 8915,
      "halkın": 8916,
      "geçici": 8917,
      "bina": 8918,
      "taşıyan": 8919,
      "matematik": 8920,
      "şans": 8921,
      "istedi": 8922,
      "yarım": 8923,
      "göğü": 8924,
      "gerekçe": 8925,
      "gümrük": 8926,
      "kullana": 8927,
      "ülkem": 8928,
      "****": 8929,
      "lamalar": 8930,
      "larca": 8931,
      "tıldı": 8932,
      "yaprak": 8933,
      "seviy": 8934,
      "çağı": 8935,
      "etkilen": 8936,
      "aça": 8937,
      "alak": 8938,
      "sad": 8939,
      "jandar": 8940,
      "çerçevesinde": 8941,
      "bugüne": 8942,
      "kenar": 8943,
      "parlak": 8944,
      "dönüşüm": 8945,
      "dığına": 8946,
      "ekipman": 8947,
      "doğrultusunda": 8948,
      "metro": 8949,
      "çatış": 8950,
      "hon": 8951,
      "parmak": 8952,
      "maddi": 8953,
      "pm": 8954,
      "sevin": 8955,
      "tın": 8956,
      "yenilik": 8957,
      "uygulamaları": 8958,
      "vı": 8959,
      "savcı": 8960,
      "dans": 8961,
      "kıyafet": 8962,
      "\\\"": 8963,
      "dua": 8964,
      "gündüz": 8965,
      "duruş": 8966,
      "api": 8967,
      "sunan": 8968,
      "tional": 8969,
      "ettim": 8970,
      "gurur": 8971,
      "kalma": 8972,
      "eceği": 8973,
      "dergisi": 8974,
      "kulüp": 8975,
      "efen": 8976,
      "finansal": 8977,
      "imkanı": 8978,
      "ann": 8979,
      "sto": 8980,
      "yolda": 8981,
      "kp": 8982,
      "uyku": 8983,
      "ederken": 8984,
      "ameliyat": 8985,
      "ekmek": 8986,
      "panel": 8987,
      "liğinin": 8988,
      "profil": 8989,
      "dikkate": 8990,
      "layıp": 8991,
      "birbirinden": 8992,
      "tasarru": 8993,
      "bro": 8994,
      "çam": 8995,
      "istiyoruz": 8996,
      "memiz": 8997,
      "afyon": 8998,
      "1000": 8999,
      "döv": 9000,
      "oca": 9001,
      "kartal": 9002,
      "zevk": 9003,
      "geldiği": 9004,
      "yürüy": 9005,
      "zamanlarda": 9006,
      "price": 9007,
      "müdahale": 9008,
      "i̇lgili": 9009,
      "numaraları": 9010,
      "ime": 9011,
      "tımı": 9012,
      "filmleri": 9013,
      "kültürel": 9014,
      "konaklama": 9015,
      "uzmanı": 9016,
      "page": 9017,
      "i̇li̇": 9018,
      "onunla": 9019,
      "bahçeli": 9020,
      "geleneksel": 9021,
      "ajan": 9022,
      "blu": 9023,
      "âdet": 9024,
      "iyel": 9025,
      "markalar": 9026,
      "birinin": 9027,
      "i̇f": 9028,
      "emekli": 9029,
      "mesiyle": 9030,
      "eceğiz": 9031,
      "anlı": 9032,
      "çekici": 9033,
      "karadeniz": 9034,
      "daroğlu": 9035,
      "uyumlu": 9036,
      "mid": 9037,
      "yüzünden": 9038,
      "masi": 9039,
      "moto": 9040,
      "depo": 9041,
      "server": 9042,
      "öf": 9043,
      "yede": 9044,
      "çekim": 9045,
      "glo": 9046,
      "olağan": 9047,
      "barın": 9048,
      "fiyatlar": 9049,
      "olmalıdır": 9050,
      "bire": 9051,
      "tesi̇": 9052,
      "afrika": 9053,
      "kamyon": 9054,
      "öykü": 9055,
      "was": 9056,
      "bini": 9057,
      "alkol": 9058,
      "720": 9059,
      "anket": 9060,
      "içindeki": 9061,
      "çıkacak": 9062,
      "bilimsel": 9063,
      "tehlik": 9064,
      "mutluluk": 9065,
      "clu": 9066,
      "yerden": 9067,
      "kurtulu": 9068,
      "ağız": 9069,
      "ğının": 9070,
      "anında": 9071,
      "tad": 9072,
      "okur": 9073,
      "belgel": 9074,
      "taları": 9075,
      "yenilen": 9076,
      "yöntemi": 9077,
      "plus": 9078,
      "bedel": 9079,
      "çey": 9080,
      "vere": 9081,
      "forma": 9082,
      "yüzey": 9083,
      "yetişkin": 9084,
      "lir": 9085,
      "vor": 9086,
      "date": 9087,
      "cker": 9088,
      "kolye": 9089,
      "lami": 9090,
      "bölgel": 9091,
      "lerimizin": 9092,
      "udi": 9093,
      "yr": 9094,
      "},\"": 9095,
      "alınacak": 9096,
      "box": 9097,
      "kaydetti": 9098,
      "hic": 9099,
      "alim": 9100,
      "sözleşme": 9101,
      "ödem": 9102,
      "itibariyle": 9103,
      "yemin": 9104,
      "kedi": 9105,
      "anlayış": 9106,
      "verilir": 9107,
      "bik": 9108,
      "ula": 9109,
      "vermeye": 9110,
      "ilginç": 9111,
      "w_": 9112,
      "donanım": 9113,
      "bazıları": 9114,
      "pratik": 9115,
      "usd": 9116,
      "şeyin": 9117,
      "------------": 9118,
      "tarihli": 9119,
      "gas": 9120,
      "91": 9121,
      "pdf": 9122,
      "yanına": 9123,
      "ciye": 9124,
      "ihtiyac": 9125,
      "antren": 9126,
      "kalkın": 9127,
      "sna": 9128,
      "kala": 9129,
      "bilirler": 9130,
      "şuyor": 9131,
      "bilinç": 9132,
      "amaçlı": 9133,
      "pub": 9134,
      "arzu": 9135,
      "önü": 9136,
      "civar": 9137,
      "psi": 9138,
      "kriz": 9139,
      "basketbol": 9140,
      "canım": 9141,
      "kele": 9142,
      "arşiv": 9143,
      "tasarımı": 9144,
      "tıklayın": 9145,
      "lüks": 9146,
      "netice": 9147,
      "mediği": 9148,
      "mine": 9149,
      "aralarında": 9150,
      "layacak": 9151,
      "yürüyüş": 9152,
      "edir": 9153,
      "giderek": 9154,
      "hindi": 9155,
      "peri": 9156,
      "ceğim": 9157,
      "hazırlanan": 9158,
      "bireysel": 9159,
      "buğ": 9160,
      "iv": 9161,
      "yıp": 9162,
      "genelde": 9163,
      "sendi": 9164,
      "sm": 9165,
      "sman": 9166,
      "kdv": 9167,
      "atın": 9168,
      "elerle": 9169,
      "ziya": 9170,
      "galaxy": 9171,
      "dh": 9172,
      "note": 9173,
      "esen": 9174,
      "ihracat": 9175,
      "stem": 9176,
      "evinde": 9177,
      "nav": 9178,
      "gösterir": 9179,
      "bonus": 9180,
      "i̇çerik": 9181,
      "iyim": 9182,
      "doğrusu": 9183,
      "beyin": 9184,
      "poli": 9185,
      "birleştir": 9186,
      "kapsa": 9187,
      "konuşan": 9188,
      "operatör": 9189,
      "endek": 9190,
      "katılımcı": 9191,
      "urt": 9192,
      "geliştirme": 9193,
      "sten": 9194,
      "engelli": 9195,
      "i̇lanları": 9196,
      "nö": 9197,
      "maale": 9198,
      "yetki": 9199,
      "kimsenin": 9200,
      "sing": 9201,
      "üzer": 9202,
      "çekti": 9203,
      "maalesef": 9204,
      "gah": 9205,
      "derken": 9206,
      "sizden": 9207,
      "ments": 9208,
      "hızla": 9209,
      "parçası": 9210,
      "elazı": 9211,
      "dayanık": 9212,
      "gele": 9213,
      "günler": 9214,
      "yerleri": 9215,
      "birleşik": 9216,
      "ştan": 9217,
      "yürür": 9218,
      "tali": 9219,
      "belirle": 9220,
      "photos": 9221,
      "dalı": 9222,
      "sahih": 9223,
      "müştür": 9224,
      "üyle": 9225,
      "puanı": 9226,
      "sorunları": 9227,
      "olmaktadır": 9228,
      "sertifi": 9229,
      "potan": 9230,
      "uluyor": 9231,
      "suret": 9232,
      "kurulan": 9233,
      "2004": 9234,
      "rrrr": 9235,
      "gerçekleştirilen": 9236,
      "birbirine": 9237,
      "temizle": 9238,
      "yukarıda": 9239,
      "hattı": 9240,
      "planı": 9241,
      "vey": 9242,
      "beyan": 9243,
      "hasar": 9244,
      "i̇ne": 9245,
      "ülük": 9246,
      "mezar": 9247,
      "vakfı": 9248,
      "resi": 9249,
      "süren": 9250,
      "sebebiyle": 9251,
      "kân": 9252,
      "liliği": 9253,
      "lanmaktadır": 9254,
      "veli": 9255,
      "arken": 9256,
      "wn": 9257,
      "gösteriyor": 9258,
      "gençler": 9259,
      "müj": 9260,
      "vermektedir": 9261,
      "alınır": 9262,
      "kitapları": 9263,
      "end": 9264,
      "lemi": 9265,
      "lerimize": 9266,
      "tom": 9267,
      "hani": 9268,
      "inizde": 9269,
      "danışmanlık": 9270,
      "latma": 9271,
      "tabak": 9272,
      "insanı": 9273,
      "vay": 9274,
      "kullanan": 9275,
      "üstüne": 9276,
      "ilmektedir": 9277,
      "üldü": 9278,
      "imizden": 9279,
      "odak": 9280,
      "i̇mâm": 9281,
      "alıcı": 9282,
      "hürriyet": 9283,
      "content": 9284,
      "insanlara": 9285,
      "yaza": 9286,
      "gelişmiş": 9287,
      "cerir": 9288,
      "i̇si̇": 9289,
      "cenaz": 9290,
      "yolculuk": 9291,
      "seven": 9292,
      "hücr": 9293,
      "paris": 9294,
      "biliyoruz": 9295,
      "gecik": 9296,
      "yumurta": 9297,
      "trump": 9298,
      "sevk": 9299,
      "ğından": 9300,
      "faktör": 9301,
      "çizgi": 9302,
      "gem": 9303,
      "seksi": 9304,
      "benden": 9305,
      "bulunma": 9306,
      "porno": 9307,
      "bakımı": 9308,
      "123": 9309,
      "ahşap": 9310,
      "devletin": 9311,
      "başlı": 9312,
      "siy": 9313,
      "kaybetti": 9314,
      "mızdan": 9315,
      "graf": 9316,
      "anlamı": 9317,
      "sızın": 9318,
      "satışı": 9319,
      "göğüs": 9320,
      "zul": 9321,
      "elinde": 9322,
      "sırt": 9323,
      "turkey": 9324,
      "aracılığıyla": 9325,
      "bizler": 9326,
      "tisi": 9327,
      "önümüzdeki": 9328,
      "yaşadığı": 9329,
      "bekir": 9330,
      "muhtemel": 9331,
      "nüfus": 9332,
      "kolayca": 9333,
      "fah": 9334,
      "berg": 9335,
      "blok": 9336,
      "yaptıkları": 9337,
      "vize": 9338,
      "devrim": 9339,
      "sanırım": 9340,
      "çocukları": 9341,
      "ajans": 9342,
      "yecek": 9343,
      "özellikler": 9344,
      "keyifli": 9345,
      "alay": 9346,
      "ell": 9347,
      "laf": 9348,
      "cli": 9349,
      "kılıçdaroğlu": 9350,
      "hakem": 9351,
      "js": 9352,
      "cağına": 9353,
      "çın": 9354,
      "evli": 9355,
      "blaj": 9356,
      "i̇ncel": 9357,
      "desen": 9358,
      "durumlarda": 9359,
      "doma": 9360,
      "jandarma": 9361,
      "üretimi": 9362,
      "bbi": 9363,
      "wl": 9364,
      "birer": 9365,
      "etmez": 9366,
      "inceleme": 9367,
      "fiziksel": 9368,
      "husus": 9369,
      "pul": 9370,
      "referans": 9371,
      "yakıt": 9372,
      "istiyorsanız": 9373,
      "şâ": 9374,
      "dublaj": 9375,
      "çel": 9376,
      "yabilirsiniz": 9377,
      "alanları": 9378,
      "grafi": 9379,
      "hayran": 9380,
      "oksi": 9381,
      "yy": 9382,
      "kilit": 9383,
      "tıkları": 9384,
      "silahlı": 9385,
      "ilerden": 9386,
      "plaj": 9387,
      "div": 9388,
      "görevi": 9389,
      "noktada": 9390,
      "devamını": 9391,
      "mahkemesi": 9392,
      "koordin": 9393,
      "cle": 9394,
      "payla": 9395,
      "boru": 9396,
      "type": 9397,
      "kimyasal": 9398,
      "çocuğ": 9399,
      "kavu": 9400,
      "prote": 9401,
      "olmadı": 9402,
      "sektörü": 9403,
      "çoban": 9404,
      "work": 9405,
      "bart": 9406,
      "temas": 9407,
      "tifak": 9408,
      "nama": 9409,
      "kıyamet": 9410,
      "gördük": 9411,
      "db": 9412,
      "çevirisi": 9413,
      "sn": 9414,
      "vefat": 9415,
      "omuz": 9416,
      "kutlu": 9417,
      "lerken": 9418,
      "tedav": 9419,
      "parta": 9420,
      "inanç": 9421,
      "örtü": 9422,
      "kızlar": 9423,
      "rakip": 9424,
      "cay": 9425,
      "melerini": 9426,
      "genelinde": 9427,
      "word": 9428,
      "bünyesinde": 9429,
      "senar": 9430,
      "başak": 9431,
      "gözlem": 9432,
      "edilebilir": 9433,
      "logo": 9434,
      "olduğunuz": 9435,
      "kolayla": 9436,
      "şunu": 9437,
      "güçlendir": 9438,
      "edici": 9439,
      "ilmez": 9440,
      "meme": 9441,
      "farkı": 9442,
      "rüya": 9443,
      "imal": 9444,
      "ikili": 9445,
      "maddesi": 9446,
      "dc": 9447,
      "lastik": 9448,
      "rivayetine": 9449,
      "php": 9450,
      "produ": 9451,
      "lm": 9452,
      "toplantısı": 9453,
      "boyun": 9454,
      "landırı": 9455,
      "alem": 9456,
      "eklen": 9457,
      "orhan": 9458,
      "sıvı": 9459,
      "from": 9460,
      "imet": 9461,
      "kavra": 9462,
      "saniye": 9463,
      "komutan": 9464,
      "mun": 9465,
      "koron": 9466,
      "guldak": 9467,
      "cid": 9468,
      "şeye": 9469,
      "kurtul": 9470,
      "&#": 9471,
      "fazlası": 9472,
      "ekibi": 9473,
      "[]": 9474,
      "makla": 9475,
      "ufak": 9476,
      "müslim": 9477,
      "biçim": 9478,
      "tecrübe": 9479,
      "efendi": 9480,
      "alanya": 9481,
      "fabrik": 9482,
      "villa": 9483,
      "kadık": 9484,
      "başlayacak": 9485,
      "bilgiye": 9486,
      "hesabı": 9487,
      "lib": 9488,
      "fuar": 9489,
      "olunca": 9490,
      "çil": 9491,
      "mücâ": 9492,
      "asına": 9493,
      "cerrahi": 9494,
      "dayanıklı": 9495,
      "usb": 9496,
      "i̇ste": 9497,
      "soruları": 9498,
      "döviz": 9499,
      "salih": 9500,
      "şti": 9501,
      "işçi": 9502,
      "zonguldak": 9503,
      "halka": 9504,
      "ust": 9505,
      "koyun": 9506,
      "muay": 9507,
      "merce": 9508,
      "platformu": 9509,
      "medim": 9510,
      "mesajı": 9511,
      "mevcuttur": 9512,
      "asit": 9513,
      "gayet": 9514,
      "yid": 9515,
      "olduklarını": 9516,
      "elazığ": 9517,
      "bölümünde": 9518,
      "gari": 9519,
      "lisesi": 9520,
      "eği̇ti̇m": 9521,
      "değin": 9522,
      "eeee": 9523,
      "yapılmıştır": 9524,
      "hepsini": 9525,
      "festival": 9526,
      "kadıköy": 9527,
      "menizi": 9528,
      "mağaza": 9529,
      "bed": 9530,
      "tarzı": 9531,
      "çama": 9532,
      "iyo": 9533,
      "buyurmuştur": 9534,
      "ti̇caret": 9535,
      "way": 9536,
      "genin": 9537,
      "ülüyor": 9538,
      "demokratik": 9539,
      "ers": 9540,
      "hadislerle": 9541,
      "ano": 9542,
      "sanayi̇": 9543,
      "jpg": 9544,
      "gibidir": 9545,
      "karşıya": 9546,
      "mektup": 9547,
      "ekib": 9548,
      "musunuz": 9549,
      "roma": 9550,
      "yenile": 9551,
      "istediği": 9552,
      "bağır": 9553,
      "zemin": 9554,
      "mul": 9555,
      "kursu": 9556,
      "ny": 9557,
      "izlenme": 9558,
      "erke": 9559,
      "promo": 9560,
      "olmayacak": 9561,
      "kapan": 9562,
      "alabilirsiniz": 9563,
      "rit": 9564,
      "sonuçlar": 9565,
      "sunum": 9566,
      "babam": 9567,
      "yuvar": 9568,
      "ibex_room_grid": 9569,
      "hindistan": 9570,
      "ente": 9571,
      "verim": 9572,
      "şik": 9573,
      "verilecek": 9574,
      "iyiz": 9575,
      "avir": 9576,
      "memlek": 9577,
      "öğret": 9578,
      "tions": 9579,
      "fotoğrafları": 9580,
      "ideal": 9581,
      "erdem": 9582,
      "2003": 9583,
      "mb": 9584,
      "yatırımcı": 9585,
      "haram": 9586,
      "mag": 9587,
      "cell": 9588,
      "tistik": 9589,
      "zafer": 9590,
      "teker": 9591,
      "şahıs": 9592,
      "tiy": 9593,
      "tuval": 9594,
      "akın": 9595,
      "gut": 9596,
      "sürpriz": 9597,
      "kore": 9598,
      "yıllardır": 9599,
      "anlatım": 9600,
      "sorunlar": 9601,
      "kalıp": 9602,
      "çav": 9603,
      "günah": 9604,
      "adamı": 9605,
      "kalıcı": 9606,
      "800": 9607,
      "war": 9608,
      "sistemler": 9609,
      "zincir": 9610,
      "kalır": 9611,
      "görüyor": 9612,
      "hakaret": 9613,
      "albüm": 9614,
      "kun": 9615,
      "bulama": 9616,
      "üd": 9617,
      "memesi": 9618,
      "alya": 9619,
      "lerindeki": 9620,
      "trak": 9621,
      "kasyon": 9622,
      "hede": 9623,
      "araçları": 9624,
      "conta": 9625,
      "kaybe": 9626,
      "stat": 9627,
      "haft": 9628,
      "pişir": 9629,
      "müte": 9630,
      "kanat": 9631,
      "protok": 9632,
      "biliyorum": 9633,
      "ithal": 9634,
      "deneme": 9635,
      "si̇n": 9636,
      "bk": 9637,
      "muhasebe": 9638,
      "kızıl": 9639,
      "yaklaşım": 9640,
      "cili": 9641,
      "denk": 9642,
      "ciha": 9643,
      "yazın": 9644,
      "satıl": 9645,
      "mum": 9646,
      "şartları": 9647,
      "aykırı": 9648,
      "uyuştur": 9649,
      "caddesi": 9650,
      "sitem": 9651,
      "rat": 9652,
      "yerin": 9653,
      "sonsuz": 9654,
      "anlatan": 9655,
      "protokol": 9656,
      "gidip": 9657,
      "açıkça": 9658,
      "ölçüm": 9659,
      "sekret": 9660,
      "element": 9661,
      "email": 9662,
      "ifadelerini": 9663,
      "heli": 9664,
      "lg": 9665,
      "soruşturma": 9666,
      "mc": 9667,
      "irim": 9668,
      "gurme": 9669,
      "bez": 9670,
      "biber": 9671,
      "kana": 9672,
      "çet": 9673,
      "taç": 9674,
      "kazanan": 9675,
      "sessiz": 9676,
      "biyet": 9677,
      "kullanılabilir": 9678,
      "döner": 9679,
      "sunuyor": 9680,
      "burun": 9681,
      "olacağı": 9682,
      "eğlenceli": 9683,
      "sül": 9684,
      "oldum": 9685,
      "sahil": 9686,
      "sony": 9687,
      "sorunun": 9688,
      "lacaktır": 9689,
      "ortamda": 9690,
      "cüz": 9691,
      "kuran": 9692,
      "görünüyor": 9693,
      "kuralları": 9694,
      "cur": 9695,
      "jet": 9696,
      "ölen": 9697,
      "siyel": 9698,
      "iydi": 9699,
      "handler": 9700,
      "devleti": 9701,
      "101": 9702,
      "adeta": 9703,
      "enstit": 9704,
      "alev": 9705,
      "ife": 9706,
      "sön": 9707,
      "sporcu": 9708,
      "nel": 9709,
      "rej": 9710,
      "türkmen": 9711,
      "gelişmeler": 9712,
      "şok": 9713,
      "kütüp": 9714,
      "sapp": 9715,
      "hastalığı": 9716,
      "özgürlük": 9717,
      "ney": 9718,
      "docum": 9719,
      "filistin": 9720,
      "nâ": 9721,
      "dışişleri": 9722,
      "ükle": 9723,
      "sizleri": 9724,
      "vakı": 9725,
      "maların": 9726,
      "gebel": 9727,
      "günleri": 9728,
      "usal": 9729,
      "vererek": 9730,
      "ziraat": 9731,
      "geli": 9732,
      "ğinizi": 9733,
      "return": 9734,
      "kaynakları": 9735,
      "yapay": 9736,
      "davu": 9737,
      "bast": 9738,
      "stor": 9739,
      "john": 9740,
      "tum": 9741,
      "tanesi": 9742,
      "i̇nan": 9743,
      "denge": 9744,
      "anistan": 9745,
      "sub": 9746,
      "uygulan": 9747,
      "noktası": 9748,
      "hikmet": 9749,
      "inanı": 9750,
      "veç": 9751,
      "tekin": 9752,
      "koruyucu": 9753,
      "yaratıcı": 9754,
      "birine": 9755,
      "toğlu": 9756,
      "ero": 9757,
      "diya": 9758,
      "rekor": 9759,
      "masaj": 9760,
      "karma": 9761,
      "world": 9762,
      "işit": 9763,
      "chan": 9764,
      "kaydı": 9765,
      "mardin": 9766,
      "topluluk": 9767,
      "kıymet": 9768,
      "here": 9769,
      "anlattı": 9770,
      "endüstr": 9771,
      "edenler": 9772,
      "tesisat": 9773,
      "kılav": 9774,
      "altyapı": 9775,
      "mesafe": 9776,
      "ulaşabilirsiniz": 9777,
      "düşünüyor": 9778,
      "galler": 9779,
      "yürüt": 9780,
      "esnasında": 9781,
      "cümle": 9782,
      "müdürlüğ": 9783,
      "pantol": 9784,
      "olog": 9785,
      "görüle": 9786,
      "edirne": 9787,
      "ektif": 9788,
      "bilgilerin": 9789,
      "yararlan": 9790,
      "nakleder": 9791,
      "konsol": 9792,
      "rid": 9793,
      "tag": 9794,
      "milliyet": 9795,
      "ehli": 9796,
      "ultra": 9797,
      "atma": 9798,
      "ılmaz": 9799,
      ".'": 9800,
      "layınız": 9801,
      "gezilecek": 9802,
      "ertel": 9803,
      "sordu": 9804,
      "düzce": 9805,
      "tbmm": 9806,
      "true": 9807,
      "ürünün": 9808,
      "binin": 9809,
      "çalışır": 9810,
      "doktora": 9811,
      "duruma": 9812,
      "ald": 9813,
      "iyorlar": 9814,
      "vent": 9815,
      "mevsim": 9816,
      "rüyada": 9817,
      "hâk": 9818,
      "muhalef": 9819,
      "hile": 9820,
      "diven": 9821,
      "güler": 9822,
      "cey": 9823,
      "bıçak": 9824,
      "budur": 9825,
      "terk": 9826,
      "sla": 9827,
      "çıkmış": 9828,
      "efsan": 9829,
      "yavuz": 9830,
      "nn": 9831,
      "şi̇r": 9832,
      "buldu": 9833,
      "binden": 9834,
      "havay": 9835,
      "sili": 9836,
      "sayede": 9837,
      "uzay": 9838,
      "verin": 9839,
      "görüntüle": 9840,
      "sitesinde": 9841,
      "tazmin": 9842,
      "oyunlar": 9843,
      "abon": 9844,
      "öv": 9845,
      "lev": 9846,
      "seçin": 9847,
      "tesli": 9848,
      "sahte": 9849,
      "arkadaşım": 9850,
      "yunanistan": 9851,
      "dör": 9852,
      "hayatta": 9853,
      "download": 9854,
      "ederler": 9855,
      "dantel": 9856,
      "kati": 9857,
      "gündeme": 9858,
      "kusur": 9859,
      "minin": 9860,
      "gereği": 9861,
      "burcu": 9862,
      "kutusu": 9863,
      "kahramanmaraş": 9864,
      "üme": 9865,
      "cadde": 9866,
      "kıyı": 9867,
      "112": 9868,
      "yıkı": 9869,
      "turist": 9870,
      "ford": 9871,
      "nakletti": 9872,
      "düşüş": 9873,
      "cinayet": 9874,
      "işime": 9875,
      "üni̇": 9876,
      "niteli": 9877,
      "atu": 9878,
      "korumak": 9879,
      "adıyaman": 9880,
      "aktarı": 9881,
      "bakalım": 9882,
      "gördüm": 9883,
      "fida": 9884,
      "çocuğu": 9885,
      "kimin": 9886,
      "yapabilir": 9887,
      "vatanda": 9888,
      "enerj": 9889,
      "ena": 9890,
      "sip": 9891,
      "saatleri": 9892,
      "psikolojik": 9893,
      "sektöründe": 9894,
      "evin": 9895,
      "tarafı": 9896,
      "feth": 9897,
      "hacı": 9898,
      "hastalıkları": 9899,
      "black": 9900,
      "açıdan": 9901,
      "erime": 9902,
      "karbon": 9903,
      "randev": 9904,
      "şeyleri": 9905,
      "akademik": 9906,
      "mülk": 9907,
      "editör": 9908,
      "yayınlanan": 9909,
      "annesi": 9910,
      "asans": 9911,
      "i̇zm": 9912,
      "tutan": 9913,
      "pl": 9914,
      "sabır": 9915,
      "tehlike": 9916,
      "kariyer": 9917,
      "prim": 9918,
      "söylüyor": 9919,
      "dolan": 9920,
      "leşe": 9921,
      "whatsapp": 9922,
      "testi": 9923,
      "halen": 9924,
      "dunuz": 9925,
      "üstünde": 9926,
      "kısıt": 9927,
      "irler": 9928,
      "evine": 9929,
      "dakik": 9930,
      "sağlıyor": 9931,
      "istis": 9932,
      "seçimi": 9933,
      "damla": 9934,
      "kalmış": 9935,
      "atif": 9936,
      "kuşa": 9937,
      "pür": 9938,
      "olmayı": 9939,
      "аn": 9940,
      "türki̇ye": 9941,
      "yazık": 9942,
      "dünyası": 9943,
      "sözleşmesi": 9944,
      "yaşamak": 9945,
      "üstelik": 9946,
      "bi̇li̇": 9947,
      "yitir": 9948,
      "promosyon": 9949,
      "sw": 9950,
      "isterseniz": 9951,
      ",,": 9952,
      "dinin": 9953,
      "house": 9954,
      "idare": 9955,
      "tıkan": 9956,
      "tılması": 9957,
      "edi̇": 9958,
      "müzi": 9959,
      "karaman": 9960,
      "başlıklı": 9961,
      "dizisi": 9962,
      "silik": 9963,
      "off": 9964,
      "meclisi": 9965,
      "enfeksiyon": 9966,
      "koronavir": 9967,
      "ges": 9968,
      "!”": 9969,
      "musa": 9970,
      "kanunun": 9971,
      "cektir": 9972,
      "haki": 9973,
      "ettiler": 9974,
      "sag": 9975,
      "kazı": 9976,
      "edebilir": 9977,
      "2002": 9978,
      "bunlara": 9979,
      "verilmesi": 9980,
      "font": 9981,
      "ters": 9982,
      "olayı": 9983,
      "mekteyiz": 9984,
      "belirtildi": 9985,
      "kurulum": 9986,
      "read": 9987,
      "düğüm": 9988,
      "kenti": 9989,
      "haklı": 9990,
      "document": 9991,
      "rep": 9992,
      "cevabı": 9993,
      "teklifi": 9994,
      "konularda": 9995,
      "yaptım": 9996,
      "artan": 9997,
      "olgun": 9998,
      "denin": 9999,
      "kemik": 10000,
      "sanı": 10001,
      "larınıza": 10002,
      "çukur": 10003,
      "tebrik": 10004,
      "life": 10005,
      "gördü": 10006,
      "tartı": 10007,
      "incelen": 10008,
      "soğut": 10009,
      "arıza": 10010,
      "tokat": 10011,
      "toplan": 10012,
      "gue": 10013,
      "sed": 10014,
      "konuya": 10015,
      "sinyal": 10016,
      "filmin": 10017,
      "muhafaz": 10018,
      "nihayet": 10019,
      "malarına": 10020,
      "elektrikli": 10021,
      "ihale": 10022,
      "muştu": 10023,
      "çalışa": 10024,
      "delik": 10025,
      "fırsatı": 10026,
      "noktas": 10027,
      "krem": 10028,
      "ömür": 10029,
      "tamin": 10030,
      "muyor": 10031,
      "bölgesindeki": 10032,
      "coğraf": 10033,
      "edildiği": 10034,
      "merkezinde": 10035,
      "akış": 10036,
      "rekabet": 10037,
      "real": 10038,
      "ahlak": 10039,
      "gösterdi": 10040,
      "makale": 10041,
      "örü": 10042,
      "celeri": 10043,
      "ülür": 10044,
      "vatandaşlar": 10045,
      "ciğer": 10046,
      "kazanmak": 10047,
      "dakikada": 10048,
      "views": 10049,
      "santr": 10050,
      "itiraz": 10051,
      "sic": 10052,
      "sürüm": 10053,
      "mümkündür": 10054,
      "ulmaz": 10055,
      "general": 10056,
      "çekir": 10057,
      "kendileri": 10058,
      "gitmek": 10059,
      "pencere": 10060,
      "cit": 10061,
      "şehrin": 10062,
      "oğuz": 10063,
      "ülkeler": 10064,
      "verici": 10065,
      "efendim": 10066,
      "izleme": 10067,
      "sözcü": 10068,
      "maruz": 10069,
      "ilişkiler": 10070,
      "mete": 10071,
      "ören": 10072,
      "firması": 10073,
      "büyüme": 10074,
      "##": 10075,
      "rengi": 10076,
      "görüntüleme": 10077,
      "uyuşturucu": 10078,
      "isparta": 10079,
      "çiğ": 10080,
      "toplumun": 10081,
      "bi̇lgi̇": 10082,
      "kullanabilirsiniz": 10083,
      "değilim": 10084,
      "atık": 10085,
      "usunun": 10086,
      "hariç": 10087,
      "lea": 10088,
      "masraf": 10089,
      "alardan": 10090,
      "gebelik": 10091,
      "hamil": 10092,
      "ağa": 10093,
      "testo": 10094,
      "beklenen": 10095,
      "adil": 10096,
      "jel": 10097,
      "pur": 10098,
      "halil": 10099,
      "gerektiği": 10100,
      "macer": 10101,
      ".’": 10102,
      "ami": 10103,
      "imân": 10104,
      "metrek": 10105,
      "cephe": 10106,
      "i̇sta": 10107,
      "bayi": 10108,
      "işbirliği": 10109,
      "kadin": 10110,
      "iyice": 10111,
      "vul": 10112,
      "sinan": 10113,
      "sunul": 10114,
      "tüketim": 10115,
      "aksine": 10116,
      "radi": 10117,
      "tive": 10118,
      "ağırlık": 10119,
      "zâ": 10120,
      "eren": 10121,
      "ailesi": 10122,
      "ürk": 10123,
      "kendimi": 10124,
      "zorlu": 10125,
      "küfür": 10126,
      "yâ": 10127,
      "katâde": 10128,
      "ümit": 10129,
      "mercedes": 10130,
      "çö": 10131,
      "kabil": 10132,
      "yönünde": 10133,
      "bacak": 10134,
      "gelişme": 10135,
      "işletme": 10136,
      "niye": 10137,
      "yoktu": 10138,
      "abdül": 10139,
      "tavuk": 10140,
      "kemer": 10141,
      "ect": 10142,
      "pembe": 10143,
      "master": 10144,
      "mücâhid": 10145,
      "york": 10146,
      "genişlet": 10147,
      "gara": 10148,
      "tıbbi": 10149,
      "önemi": 10150,
      "gidiş": 10151,
      "açıldı": 10152,
      "ergen": 10153,
      "ilip": 10154,
      "bizimle": 10155,
      "stel": 10156,
      "kâfir": 10157,
      "öporta": 10158,
      "zorluk": 10159,
      "oranında": 10160,
      "zda": 10161,
      "çetin": 10162,
      "liman": 10163,
      "oysa": 10164,
      "belirlenen": 10165,
      "rent": 10166,
      "arch": 10167,
      "öztürk": 10168,
      "günden": 10169,
      "shop": 10170,
      "kupası": 10171,
      "bilmeniz": 10172,
      "olamaz": 10173,
      "nasil": 10174,
      "rul": 10175,
      "ilerde": 10176,
      "planla": 10177,
      "i̇hra": 10178,
      "right": 10179,
      "şubesi": 10180,
      "0000": 10181,
      "kalacak": 10182,
      "etkileri": 10183,
      "ende": 10184,
      "bilmiyorum": 10185,
      "hamur": 10186,
      "ng": 10187,
      "açıklandı": 10188,
      "hazırla": 10189,
      "sidir": 10190,
      "geldiğini": 10191,
      "uzaktan": 10192,
      "dığından": 10193,
      "malzemeler": 10194,
      "zim": 10195,
      "cap": 10196,
      "nas": 10197,
      "üzün": 10198,
      "sky": 10199,
      "bilişim": 10200,
      "organize": 10201,
      "sunulan": 10202,
      "tlar": 10203,
      "lanmaz": 10204,
      "oğl": 10205,
      "booking": 10206,
      "yenin": 10207,
      "ifâde": 10208,
      "projeler": 10209,
      "getirmek": 10210,
      "filmler": 10211,
      "hücre": 10212,
      "bağımlı": 10213,
      "terapi": 10214,
      "center": 10215,
      "monu": 10216,
      "hr": 10217,
      "üyeler": 10218,
      "akademi": 10219,
      "lerinize": 10220,
      "yerlerde": 10221,
      "yakından": 10222,
      "kole": 10223,
      "kolaylaştır": 10224,
      "aksiyon": 10225,
      "verimli": 10226,
      "festivali": 10227,
      "sina": 10228,
      "topu": 10229,
      "hassa": 10230,
      "strateji": 10231,
      "satan": 10232,
      "cia": 10233,
      "gerekti": 10234,
      "kari": 10235,
      "koleksiyon": 10236,
      "ödülü": 10237,
      "vakıf": 10238,
      "uncu": 10239,
      "zamanlar": 10240,
      "buyuruyor": 10241,
      "imkân": 10242,
      "tekst": 10243,
      "turan": 10244,
      "kazandı": 10245,
      "kuy": 10246,
      "piyas": 10247,
      "iştir": 10248,
      "arazi": 10249,
      "soka": 10250,
      "dikkatli": 10251,
      "yönetmeli": 10252,
      "şeref": 10253,
      "öportaj": 10254,
      "sg": 10255,
      "terim": 10256,
      "sürece": 10257,
      "yüküm": 10258,
      "pazarı": 10259,
      "namazı": 10260,
      "edilmektedir": 10261,
      "süreli": 10262,
      "bizden": 10263,
      "beklent": 10264,
      "ayna": 10265,
      "maktır": 10266,
      "adli": 10267,
      "anlaşı": 10268,
      "aleyh": 10269,
      "</": 10270,
      "önder": 10271,
      "app": 10272,
      "haş": 10273,
      "!!!": 10274,
      "[/": 10275,
      "açtı": 10276,
      "estetik": 10277,
      "öğle": 10278,
      "motosiklet": 10279,
      "ette": 10280,
[...]
